/**
  ******************************************************************************
  * @file    network_data_params.c
  * @author  AST Embedded Analytics Research Platform
  * @date    Mon Nov 13 15:35:18 2023
  * @brief   AI Tool Automatic Code Generator for Embedded NN computing
  ******************************************************************************
  * Copyright (c) 2023 STMicroelectronics.
  * All rights reserved.
  *
  * This software is licensed under terms that can be found in the LICENSE file
  * in the root directory of this software component.
  * If no LICENSE file comes with this software, it is provided AS-IS.
  ******************************************************************************
  */

#include "network_data_params.h"


/**  Activations Section  ****************************************************/
ai_handle g_network_activations_table[1 + 2] = {
  AI_HANDLE_PTR(AI_MAGIC_MARKER),
  AI_HANDLE_PTR(NULL),
  AI_HANDLE_PTR(AI_MAGIC_MARKER),
};




/**  Weights Section  ********************************************************/
AI_ALIGNED(32)
const ai_u64 s_network_weights_array_u64[132932] = {
  0xbd3b6bd0bf0d725dU, 0xbfa0a4ba3f666e77U, 0x3f019ec03e028afaU, 0x3ecb90f53f07e5d3U,
  0x3f00c6e03f1dbbe4U, 0xbe6e400f3efdf5cfU, 0x3f3e9338bf15b415U, 0x3f074f4e3ede38c0U,
  0xbef703bf3f1179afU, 0x3edb55f8bf533ea0U, 0x3f3a80573bde9a40U, 0x3f1a9ae63e59f754U,
  0x3d7cc790be8e0332U, 0x3ebc8c12be4455b0U, 0xbf8a2d143dde6ea4U, 0x3f5a446cbdd58f00U,
  0xbf9b3d93bf3e18c6U, 0x3d2d802b3f1c4ce8U, 0x3f69b56f3fa6ffffU, 0x3e3b1e223f07fcc0U,
  0x3f626dd2be5ee48fU, 0x3eef9ccc3f031fd0U, 0xbe50ae0f40159da4U, 0xbfa7753f3f48577bU,
  0x3fa94e20be948d91U, 0x3f05b7bc3e4cc649U, 0xbd74ff843f6921b4U, 0xbf2f6886be3def6aU,
  0x3f857bb73daceb0aU, 0xbd1262c8bf086c16U, 0x3f907ca03fd19cdbU, 0x3ed3569ebf29bd2aU,
  0xbe593e73be234cc0U, 0xbdb301e03f35303cU, 0x3fbbfdbe3e82c457U, 0xbea095eabf71c4aeU,
  0xbe5b1721bf5e2b5aU, 0x3e82b9893f897710U, 0xbdd67fee3fa1bc72U, 0xbf73e19c3e19c3ebU,
  0x3f2a90ff3e54cd40U, 0x3e8201413d11afbcU, 0xbca1ac063ed838a4U, 0xbf3a5b4ebf217215U,
  0x3f16b0b23dce7579U, 0x3e315e5d3e5f4190U, 0xbeb682cebfb505ceU, 0x3dff2c203fb690d6U,
  0xbee86d5a3e45fabcU, 0x3f3b8bac3f4a4ae6U, 0x3ebd78c2bed88a3eU, 0xbf790edcbe116cf8U,
  0xbff60be03f9da6b3U, 0xbf47c638bdfd0f64U, 0xbe1459aabf594d16U, 0x3f06ead0bebfb0b2U,
  0x3f3095983f8a0e00U, 0x3e7b4c6ebf1603acU, 0xbf2ebfce3f823bc5U, 0x3f7456fa3d6e9709U,
  0xbe7dc04ebecea559U, 0x3ecf81723fc0fc16U, 0x3f1245133f6548d7U, 0x3f9a843a3ef25057U,
  0x3e698d193e078229U, 0x3da5da65bdd34349U, 0xbca71df7bcb4ea93U, 0xbece6b2abe2cde60U,
  0x3c71a8bd3e04cc9fU, 0xbe8515dcbe167d06U, 0xbd091ea7bcfb49d5U, 0xbe2417413e2c0f9aU,
  0x3e433b2fbdb3329bU, 0x3e3c7c873e1c775cU, 0x3ea3ffe23e0f3350U, 0x3ecadfd03d6e9bcbU,
  0xbe5a93ef3e2d7471U, 0xbf0700433e46032fU, 0xbe38be70bc69d436U, 0x3d51575b3c41f20fU,
  0x3d4b53e9be360173U, 0xbe2574e3be04ddc5U, 0x3d6e2adcbe2775e8U, 0x3d92cab2bde7e851U,
  0x3df8e7a33cef99edU, 0x3dd202edbedd1f14U, 0x3e2bc87dbf16a056U, 0xbe836f523d2b69a2U,
  0xbf2493c7be829a9bU, 0xbcae385abe17a6ccU, 0x3e263990bc874586U, 0x3ed5e572be8ac4c1U,
  0x3dd26f94be2c321bU, 0xbe919b9cbdb8fc1dU, 0x3ef37983be8a47b3U, 0xbdeb0a14be22461fU,
  0xbd07bbaf3e47f9d2U, 0xbe745d65bdced065U, 0x3de9ce13bda7f943U, 0x3de544e03e57a936U,
  0xbe0ae2a03e81456fU, 0x3e92885a3bc5f5deU, 0xbdcb81c13e1b3260U, 0xbe9edf893a6f3b63U,
  0x3d05122c3d71d288U, 0x3e2d37303f0f3dd5U, 0x3deaa7b13e346cb7U, 0x3bbe83483dc26bd4U,
  0x3ed10a00bde0a65dU, 0x3b082c6f3e02027dU, 0xbc879bdd3ba33b8dU, 0x3e8cceb0bd22e6f3U,
  0xbcd57d5b3ea629fcU, 0xbea0d16c3e1ca69bU, 0xbe861a6ebc66d2dfU, 0xbe839ddc3e706292U,
  0xbdeb72ee3e16dc3cU, 0xbebb00babdb5dfc0U, 0x3c87f0dd3cdb2a5eU, 0xbeb0f7e8be78d866U,
  0xbda3289c3d5785dcU, 0x3e0cd55a3dfc5303U, 0xbeca449bbb303a32U, 0x3e8802bfbdcc625dU,
  0x3ba5c637bd9f451cU, 0x3dfefe8f3e6933c7U, 0x3e352c1abe0dc604U, 0x3da7e74b3d28996dU,
  0x3db1aa4f3cc6e051U, 0x3d523ff43d282eddU, 0x3d6f13703dc28e33U, 0xbc91e35c3e20aad9U,
  0x3e3e45a03dd58b39U, 0x3e31455ebed28e50U, 0x3d0ea79ebd902433U, 0x3dfa1c11bec5aa18U,
  0xbe05fc0d3e06ca8fU, 0xbde91801bcda808dU, 0xbe8333af3cf773b0U, 0xbda95d033dd904eeU,
  0xbd9a1a27bd05dcffU, 0xbe302fd53d875bbdU, 0x3d5010893dabc5ddU, 0xbd84e40f3de14745U,
  0x3e108f5b3be5b4adU, 0xbd92ed07bdc19ad7U, 0x3e90c7973ca226e9U, 0xbbb6f29b3e0a60deU,
  0x3d1a7575be1240eaU, 0x3da718653dccb803U, 0xbe1fddccbd8bcfe8U, 0xbd429d2a3d7ff618U,
  0x3ccdaa343d2104b8U, 0x3d53c6cdbcd6b246U, 0xbb93f4c1bdf8968eU, 0x3e21c1683dece4a0U,
  0x3e4247e53e1dec64U, 0xbd4a6951bd4beff3U, 0xbcaddde1bdac22f8U, 0xbd33f290be826693U,
  0x3cc86265bdb77b45U, 0x3c641e5cbae84e03U, 0x3d9060be3dc5b58bU, 0x3df455dabde7249eU,
  0x3d0007aebd37600cU, 0x3daf0d11bb18beaeU, 0xbdd7e862bd11e2aaU, 0x3de1df943e1f92dbU,
  0x3c8ca5993d640aa5U, 0xbdfe07acbdddcffcU, 0x3c9f7d7b3ddb5741U, 0x3c95c5f0bd0cdd82U,
  0x3cfba6fd3df40ea8U, 0xb9958f2abc1f56e4U, 0xbc759232be954039U, 0xbdf464af3dca9635U,
  0x3cb184383d30c82dU, 0x3e0b8df93c84d426U, 0xbdc525ac3e412db3U, 0x3dcdde3bbd626ed1U,
  0xbc8f46c13dbcefbcU, 0xbe29f1c0bceaa492U, 0xbac82a04bf723a03U, 0xbdcbb5fd3b6c5a3fU,
  0x3d4c0f9f3d154c12U, 0x3dc7c3f0bcad9504U, 0x3d77d5b4bd8a26c7U, 0x3e7bfc51bd3ad705U,
  0x3c7b6b2ebb68cfb3U, 0x3be31abf3c8565b0U, 0x3e1354b1bde9e179U, 0x3dafc6333e859ac9U,
  0x3dad4cee3d960066U, 0x3e5a15e9bdc3a728U, 0xba8bad593e077048U, 0x3e0324bcbb4f27a0U,
  0x3ccbbf5dbcb74ca6U, 0x3e5a00febddea404U, 0xbe8080a03e5234f4U, 0x3e308093bd268ec7U,
  0x3b22694cbe2fafdcU, 0x3d5e8ac2bd11d89cU, 0x3d4106acbe208bbeU, 0x3e877b10bde0d48aU,
  0x3ea42915bda876acU, 0x3dc20071bc0d99d5U, 0xbd7a4a693cbfab2fU, 0x3de43f533db78a44U,
  0xbe6509c63d55e226U, 0xbba621253db5db32U, 0x3db7793d3df70f5bU, 0x3d0d64bd3e05d774U,
  0x3d7e90e83e86f121U, 0x3cfd3c723dc59635U, 0x3e56e3853e126d83U, 0xbe0385f53e398ce9U,
  0xbec768133edbf037U, 0x3bf025523d1ddc86U, 0xbd82d8d6bd9ec8faU, 0x3ebbfc5e3e501e7aU,
  0xbe422beebf3ba5c0U, 0xbe192ec9be52f077U, 0x3dbfa85fba57a57fU, 0xbe8b096bbda33e0bU,
  0x3d38b336bf16cb5bU, 0x3dbe3b123e1f3dcfU, 0x3d8ce2f03e8dbf9dU, 0x3cefef1cbdde6a28U,
  0xbbc22d1a3e9da80fU, 0x3ddadada3e3d2318U, 0x3d8368613e28e561U, 0x3dc0ee3b3d4308b7U,
  0x3d81d43ebd8303a6U, 0x3d5a9d763cf13e95U, 0xbeb294683e0662c2U, 0xbe3db989be5b2032U,
  0xbdab8648bd86e43cU, 0x3d909c80be07d92cU, 0xbedfcf93bf452137U, 0x3c973405bda54835U,
  0x3e0cc3b9be566151U, 0x3cfa2989be24d6b6U, 0xbc18cba2bdc836abU, 0xbe17617d3e2542fcU,
  0x3e25a98ebdd6c133U, 0xbe068938bded7e44U, 0x3df60fbdbc8716d7U, 0xbd84e686bd21c6a9U,
  0xbeaef6f7bcbcd029U, 0x3ccc1d6abe81ee8eU, 0x3d4445b43e707860U, 0xbe1d0726bdd13c08U,
  0xbd4b72643d1607a7U, 0x3d9913a83e3a2481U, 0xbcd02fb73d8a36b0U, 0xbd50cf5b3d7b4774U,
  0x3ded9ffc3eb5939cU, 0x3d897c413e7ecae2U, 0xbaf613f5bc401ad2U, 0xbd851b7dbdc2dc90U,
  0x3cc4f468bddbaf0dU, 0x3dbf9273bd33b25aU, 0xbcf1da7b3e0e4c20U, 0xbe67fc2f3da957f4U,
  0x3e278025be769ceaU, 0xbdeb7e61bdc6b335U, 0xbd923b583dba709cU, 0xbe540e37bd8639eeU,
  0xbe5311f1bcfa5175U, 0xbe2920cfbdb70c3bU, 0x3ded9fe5bd159182U, 0xbdd1c914be1c6e2aU,
  0x3da4f6793d4c7772U, 0x3d65618dbd91801fU, 0xbd3741cebe6662faU, 0x3c23210f3c273148U,
  0x3d6beeae3d050a6fU, 0x3c7d16573dc42bd7U, 0xbcc2afadbdc7e279U, 0x3e4a24743d0b2a9bU,
  0xbdb41d4d3dc1c436U, 0x3cebe35ebdc3619fU, 0x3b03d84cbd006c52U, 0xbe1134dc3d1a255dU,
  0x3e07cdd4bdb17f94U, 0x3cce78b03da4dd8eU, 0x3dbd9ebfbd5db1eaU, 0x3d66d71a3c34c3a7U,
  0xbb446c1f3d0a9d23U, 0x3e223ba6be5a9b2fU, 0xbdcaf3aa3dab622eU, 0x3dbf9bd2bd84795dU,
  0xbdb30da13e3d1c36U, 0xbdd66c6ebd8c763cU, 0x3dedb4053dc55893U, 0x3daf607d3e0e779aU,
  0xbd01b2ac3da4bb7cU, 0x3d8b8d0cbd783746U, 0x3c9b50ec3c058b5fU, 0xba03fe723e23511fU,
  0x3cab18393d6ff58cU, 0xbe13e537bdfcb951U, 0xbd8a6f82bde61d89U, 0x3dd35f6d3e036d04U,
  0x3ce430adbe888f3aU, 0x3b9e7181be83f0ccU, 0x3e3f1f0ebcbb65b5U, 0xbe609b4a3e0ff206U,
  0xbdcd5c35bcb579bfU, 0xbcd8c85dbe84c2f3U, 0xbd4ca9f03b86f622U, 0x3b84d8e03d1bffa1U,
  0xbe0516933e5040ddU, 0x3e763988bdec5e4aU, 0x3e5236c93e7d385cU, 0x3b662819bce341fdU,
  0xbdb7ea993db14301U, 0xbdd775983dab4d06U, 0x3e8c6a5bbe3bddc1U, 0x3daa77a9bd0ddb50U,
  0x3d8b9923be3ed172U, 0x3da3f2783d9f0c89U, 0x3c0fdc6dbd18fd11U, 0x3e2e106cbda17bc6U,
  0xbd9899033d82a1e6U, 0xbc5674333d557b58U, 0xbd250ecb3e027a51U, 0xbd81746dbdd1e8ddU,
  0xbce3c92e3e0e27eaU, 0x3e3adb0ebc93fed3U, 0xbdff1191bcfa202bU, 0xbe56022cbd01c737U,
  0x396231dd3b99d89fU, 0x3e18ca593e8de50eU, 0x3dd91a37bc8ce772U, 0x3e10d950bd6c688aU,
  0x3d6d2bc2bd9920faU, 0xbd8af842be57a1c9U, 0xbe055d26bdc79c71U, 0x3d833ea1be3c758cU,
  0xbd907a9b3dc4cf6eU, 0xbe84021e3c9fd281U, 0xbd89975c3e5bc331U, 0x3dfd28ec3e4a1c56U,
  0x3ddcbb023d98673aU, 0x3dfd537cbdbad460U, 0xbc0ed1153dd5333cU, 0x3d016905be16b326U,
  0x3d419f80be2baa1bU, 0x3e28c1cbbc2e29c1U, 0x3c8558afbe0e92f7U, 0xbb0c301e3d183319U,
  0x3e437b4a3e75495fU, 0xbd99db583e43c6caU, 0x3d42329d3de8eb17U, 0x3ca89fdf3d7847beU,
  0x3c316ae5be051ed8U, 0x3da702f8bd25350dU, 0xbca8c172be5a4ce6U, 0x3daaebf4be1f197dU,
  0xbc97ca27bcbeb4edU, 0xbbd47d87bc550a9bU, 0xbd83a532bddb5fa4U, 0x3dda5217bc0bf821U,
  0x3e4935f63dd31b99U, 0x3d18e9023dbec547U, 0x3c7622debf06f2c3U, 0xbe3fde03be37a980U,
  0x3e0aef733cb9cf6aU, 0x3d9b5663bd084d96U, 0x3bc7df093e0b6266U, 0xbd8243043e027685U,
  0x3d014fbdbdb64ac6U, 0xbc17a7b33d97689cU, 0x3bf98d03bcf4f4bbU, 0x3e09ec16bc9ec36fU,
  0x3e199e7a3d69ff87U, 0x3e99ada4bc96c061U, 0x3e8fade93e40b3f5U, 0xbe015170be823f45U,
  0x3e0c2334bde69bdbU, 0xbc01306a3ed43729U, 0x3dd2f6a83e971adfU, 0xbdbc2cb4bd36a0a2U,
  0x3d8169e43eb5df67U, 0xbe767bb8bd5aae46U, 0xbe86a5443e8c46c5U, 0x3dfede723de3976bU,
  0x3e808e823d639a8aU, 0x3d4fb7c63c836263U, 0xbdb36a463d442482U, 0xbd8b1e9abf0e006bU,
  0xbd85c0eb3c8a5d2eU, 0x3d8d2aedbe84a494U, 0xbe809497be50e511U, 0xbc2a7a97bd36ed5aU,
  0x3dc1f45cbb82ec01U, 0x3deee4413d484dd4U, 0xbe908fb4bd56d571U, 0xbcb692f33c75ca56U,
  0xbe9deb593c8d39b4U, 0xbc1894cbbdf10ab7U, 0x3de794e73e385bc0U, 0x3e2de08a3e3df89bU,
  0x3d24414dbd8c88cbU, 0xbe280f7f3e685a14U, 0x3b0d49043e5f9286U, 0xbe0949a63dab1eb3U,
  0x3d8a03393e212f65U, 0xbd89e4f8bd653b3eU, 0x3db896f33d837710U, 0xbdc7b34ebdf0ee64U,
  0xbe4775a83e079c79U, 0x3d520fd03e66db49U, 0xbc9d7b2abd3d6a0aU, 0xbd7031323db63301U,
  0xbcedc4dbbd503927U, 0x3e8600c2bc84de4dU, 0x3d4d363b3e03f115U, 0x3dafafa03c7330e1U,
  0xbaedc6c53c6a33e0U, 0xbda672d63d5e2e58U, 0xbdcd1c84bdf2efe0U, 0x3de311d2bd0e4357U,
  0xbd2b3d0a3e31a6e1U, 0x3e06fea6be9231eeU, 0xbcc7cca0bee58b5eU, 0x3e38ad5d3c96cb43U,
  0xbdf55007bdb674a2U, 0xbee313853deaa338U, 0xbd6731fcbe637305U, 0x3eb4300a3d1e09abU,
  0x3e63b0d73d4c8e98U, 0xbd809a583b07a4b5U, 0x3d7473993eca53efU, 0x3dd19fe2bdc39b11U,
  0x3db206f83dc9fae8U, 0xbd8cbb0c3c34c852U, 0xbda0cc30befd3923U, 0x3e849a2dbda29554U,
  0xbd1cde2a3df84e3cU, 0xbdcce0cf3cfc9138U, 0xbd602a33bd876febU, 0xbd19bca9bea2fe0dU,
  0x3dd22e82be846914U, 0xbdb5d63b3ca8328bU, 0xbd175d0fbd99baf1U, 0xbc0037903ea96f10U,
  0xbdfea8f6bd20500cU, 0x3e4012403d8a16cbU, 0x3cc7868a3cc614f8U, 0xbd688776be00a343U,
  0x3d29ff453e4dd68bU, 0x3d9997d83ba42028U, 0x3ea1827e3e03e268U, 0x3d2696f0bd8d5201U,
  0x3e3b92e3bdf94ca1U, 0xbe1ee3c8be3ea3ebU, 0xbde61c53bd4155a4U, 0x3e8816a13e6de21eU,
  0xbeb2f472be3d700dU, 0xbe8b214d3e40883cU, 0xbcda979f3b9ba5e9U, 0x3e43cbf73cf2b1c1U,
  0xbe0029c93db662eeU, 0xbd030e833e452f0cU, 0xbc571c88bd024480U, 0xbe3376ecbe0e7f38U,
  0x3e460ce43e2d5ae3U, 0xbe0e11453eb08fe9U, 0x3d98bbd2bc928e4cU, 0x3dd70d80bdfd37fdU,
  0xbdd9fc743d337691U, 0xbd008e36be18caddU, 0x3ca2734a3e024b44U, 0x3d248f483cc9d0f1U,
  0xbd99d4c2be81a710U, 0x3e87a1573e04aec0U, 0x3c8235583ea4fe05U, 0x3e3dcbfe3d75d1ebU,
  0x3cd31ade3d8be272U, 0x3e118ae63cce11afU, 0xbcf449f7be878423U, 0x3dada049bd830a21U,
  0x3ecdefdf3beb0538U, 0x3e05df353b28e2e9U, 0xbb8a959fbe3fe539U, 0x3deafeec3e009839U,
  0xba888a113d099412U, 0x3e812f25bcc53d7eU, 0x3ce57bc8bd273923U, 0x3de8bebbbd529ba4U,
  0x3e7a5c73be0e4bbdU, 0x3c9cbca9bbafe9d4U, 0xbed95629be184c2bU, 0xbe4452afbe8ae62bU,
  0xbda662eabd04a71eU, 0x3d01afe23e562fddU, 0x3de3bd643dbc92d4U, 0xbe10b7ebbe2b2283U,
  0xbdbed16abcee0adaU, 0xbd0302173d85445eU, 0x3b4212e2bcde3f0fU, 0x3baddc35be14c22cU,
  0xbd948ebfbed022b0U, 0xbedc85693dc88845U, 0x3e935b10bd6cf88cU, 0x3ce5b83c3e193abbU,
  0xbd9c038bbd2c61a6U, 0xbde6949a3e0c541dU, 0xbccba7983e2b1979U, 0xbe810b97be023569U,
  0xbd71a09d3bc11199U, 0xbdb9c30cbdb171f3U, 0x3d825e113d8653cdU, 0xbcc31b153c6f057eU,
  0xbe9488cdbc87b0faU, 0xbd1c87babe1fb6d8U, 0x3e43c95bbe31b97eU, 0x3cd7425b3dba705fU,
  0xbd8e565fbe0b24a8U, 0x3d3cd3773e80092fU, 0x3cf599b3be2d46f2U, 0xbd45cb723e9a9366U,
  0x3e0bc719be97d0d1U, 0x3d44243e3d47dc67U, 0xbd662b04bd08f94bU, 0xbde602fd3e4c3ec5U,
  0x3deb0b2e3e4ec13bU, 0x3b8794103e91e34cU, 0x3e58d17abc822909U, 0xbbe68779be02de49U,
  0xbdc1acf6bce3ae16U, 0x3be1450bbda5353fU, 0xbdba7a7f3d1917feU, 0x3d9496e8be7581baU,
  0xbd7f8f2fbeaec025U, 0x3b849265bce85a2fU, 0xbd468a3dbd89b6bbU, 0xbd848c7bbddedaacU,
  0xbe21aa513e9aab7cU, 0x3d40ad16bcfd1107U, 0xbd15d5b9be919c45U, 0x3e52131cbc311d82U,
  0xbe5b87883e1acc6bU, 0xbe4c2606bd81171cU, 0x3d2f69b8be128ec7U, 0x3e18ea9abe410892U,
  0xbdc78415bd57241aU, 0xbeab6e3bbd1c8bf4U, 0xbea8642dbe04946aU, 0xbd99ff23be744b43U,
  0x3c09bd843e0caa4aU, 0x3de3f4bfbd03ef3fU, 0x3d92bac7bd0f4889U, 0xbba5d0af3c65ae80U,
  0xbea33314be50964dU, 0xbdf1c109bd182522U, 0xbcc4de6a3d8ad118U, 0x3cc2f03bbe56281dU,
  0xbd03751a3d991cfbU, 0xbe1ab5e8bdd13999U, 0x3e44a04b3de05d8dU, 0x3e22d3b33db14b38U,
  0xbe0092a63ccb0eebU, 0xbc6a84eabe6d2050U, 0x3e12d3ec3c81777dU, 0x3da73fe53ca8362bU,
  0x3d6eea2cbe35ca1fU, 0x3e47a9c1bad9741fU, 0x3e0def7c3d50eb00U, 0x3e667bf63d1e0253U,
  0x3d0ae83e3db37d45U, 0xbd84b48abdf99943U, 0xbcdaa77cbdc7274fU, 0xbd8ca2263dbc4e32U,
  0xbba1e247bbb262c7U, 0x3c972072bd0ef8a4U, 0x3dca246d3d7a0a0dU, 0x3ebe61afbd80a243U,
  0xbce60bddbd336fa3U, 0x3d5114b03e44b07eU, 0x3d8317dd3e31e71bU, 0xbe404db8bcf009cfU,
  0xbc8948d13e21305cU, 0x3e532e513e982cd2U, 0x3e0de381be5845b1U, 0xbe0d4b263a6ff17aU,
  0x3d0fc90a3e09d726U, 0x3da8e527bd6da8a2U, 0xbe45227c3d986223U, 0x3cb20a10bda8ac2bU,
  0x3e00e726bc2a087dU, 0x3e3a5c8a3ecc8209U, 0xbcc7594d3dab9c1eU, 0x3e1e21eebe396069U,
  0xbe46a54abd958e80U, 0xbe06cb0f3d65d48eU, 0xbe280c6abe76656dU, 0xbe33ff253b8988ebU,
  0x3d9610f9bdf4f0cbU, 0xbe164f49bd5557aeU, 0xbce91a23be226dc9U, 0x3b04aa6dbd68731eU,
  0xbd254fb03e08e359U, 0xbd947c06be607d97U, 0x3dc9a87fbe4ceb4eU, 0x3e2592b53d861ac9U,
  0xbcb2ae13bccdebbeU, 0x3e05d5373b96b4acU, 0xbc84b236bdfc90acU, 0xbde0b7453e3bb7f0U,
  0xbdcbe431bdbf8f4dU, 0xbd8652e6be83050cU, 0xbd1ee4183e17d34dU, 0xbce7a913be3b11aaU,
  0x3c1ef7363d34706bU, 0x3c0fc4f33e178a0eU, 0xbde28180bd6671f9U, 0xbe6228cd3e739502U,
  0xbb2ad328be1f922bU, 0x3dc27f6fbd5325d8U, 0x3bc03fbc3d921cbdU, 0x3e2fb3f7bd4d5f93U,
  0xbd9e8bb43d8c929fU, 0x3d50892bbd97e1a6U, 0xbd920b73bd613687U, 0x3e4df47cbe02fe8dU,
  0x3d1ac744bdcef0a2U, 0xbd55800d3dea1d03U, 0x3d1eb691bd9856dcU, 0x3e68c8f6bdbcc320U,
  0xbdc8b88d3da91e20U, 0xbe2f5e1f3df16915U, 0x3daeb475bdd3b289U, 0xbe472cfe3d5f9b14U,
  0x3d8a5d523e41693eU, 0x3e087bccbe27b51eU, 0xbdf7c4b3be4cded2U, 0xbdfd0954bd93c40bU,
  0xbd3f0c8c3e1ce1dbU, 0xbbe096c3bca672b8U, 0xbb67931ebb8977aeU, 0xbb91b46ebe044727U,
  0xbe5948013cda3637U, 0x3e72fbbd3d85caa7U, 0xbc08b7acbd7fbac5U, 0xbbc01bcbbb596ab0U,
  0x3d802a79be91ee57U, 0xbd32a4ae3e891658U, 0xbe08b613bca2be41U, 0xbcc642043d8ab409U,
  0xbbb174693ddedf52U, 0xbd054b853da64491U, 0x3e5da6973d194cedU, 0xbba336a5bed5bd1dU,
  0x3b566008be2507e4U, 0x3e7112653dbbbffcU, 0x3bc94865bd71ed9cU, 0x3cefacdd3da4426aU,
  0xbdca1b033ce8c9d1U, 0x3dae68afbdf088deU, 0xbd87be523d8e7666U, 0x3c805bc7bda9dcfeU,
  0x3d76a2d23e0d9cb2U, 0xbe352aa0bdf9f1efU, 0xbdd4acecbe0301d3U, 0xbc200739bdc6eea0U,
  0xbad5ef593d8434f8U, 0x3dabb05bbde8adf1U, 0xbebac03bbdf08882U, 0x3d871b4abd9da305U,
  0x3d516384be026be5U, 0xbe014b703e7cdf16U, 0x3dda30a43db92b10U, 0x3e0711033d9e2d43U,
  0x3d2a0f2e3d58ca4aU, 0x3db5f9ae3cdd07f8U, 0xbd0c3a94bbc414b7U, 0x3d4a84b8bd184b9aU,
  0xbd9d034ebd6c292fU, 0x3e699c84bdc502b0U, 0x3d9917693d90d161U, 0xbdc6cb8abd897a45U,
  0xbd52c100bdc3a3adU, 0xbe300d72be117d89U, 0x3d8d00513e2b230fU, 0xbe05c746bda853ccU,
  0xbc92680d3d4e419cU, 0xbb80378b3d9d9d84U, 0x3db1768d3b961b57U, 0xbd026a0e3e93429aU,
  0xbc7a4864bde79118U, 0xbbe38b6a3d480d14U, 0x3c91bbf4bcf3501bU, 0x3e47243a3e49ba68U,
  0x3c8c9873bd6f10aeU, 0x3d131d27bbe7a21cU, 0xbc47f573be11a178U, 0x3d998d6a3def724fU,
  0x3df5b5afbde43f06U, 0x3f170cfc3dbcf2b9U, 0xbea627ac3d23e077U, 0x3e98f9143c066cb2U,
  0x3d083011bddf976fU, 0x3de75047bd8d36a8U, 0xbd8dadcdbd6954eaU, 0xbd4f74dbbd8ade16U,
  0x3ee11ed13c3e44f8U, 0x3d808b1cbe8a88b8U, 0x3d8b3442bd8ea4a8U, 0xbb2ed864bd4cf9b1U,
  0xbacb69a2be3b7939U, 0x3d2ad3753e842537U, 0x3e5c7387bdd9c306U, 0x3ba33b233b9e3311U,
  0x3e2d323abd290f5eU, 0x3df86b3b3e3b8a05U, 0x3d2c24a3bd534a9dU, 0x3d34f8693d0df9f4U,
  0x3d81ad1cbab49b60U, 0xbc2c1f3fbd56b212U, 0x3e31ffd5bcf70a39U, 0x3dba281dbe037640U,
  0x3db5d84a3d2c441eU, 0xbd3f0540bb29e471U, 0xbdd71b21bd9905b5U, 0x3e1bbd443d68f2b3U,
  0xbdc981b9bd0a7bf1U, 0x3d26239a3da41764U, 0xbe961b893da9597fU, 0x3e24fe293da646e3U,
  0xbd79ccb0bd8aba96U, 0x3c8b77fabd323d79U, 0x3dcb40003d808f2cU, 0xbd3f8812bf379202U,
  0x3d6609cd3d88858dU, 0x3df83579be1b62bbU, 0xbcda2b703c9654c0U, 0xbe46d86f3d35bcc5U,
  0x3e0ced72bd068d97U, 0xbe15587d3d17c5eaU, 0x3d0933a73d5dc6a4U, 0xbdaf4324bd460855U,
  0x3c995b8a3e8c658bU, 0x3d8fab75bd723bf8U, 0x3dac6eb7be92f554U, 0x3e565a87bdb4f9a8U,
  0x3c3cf2debad99744U, 0xbdd1c7e53d8dd938U, 0xbd5ed278bd4a95f2U, 0x3e499a9c3dc97f48U,
  0x3dbb2c15bde2bb41U, 0xbd466530bd4962fcU, 0x3d4490d73d9eebc9U, 0xbd9b28cf3d906472U,
  0x3d4d6a7bbe2746e2U, 0x3d69e50a3d4f9164U, 0xbc9e79bbbdc44d08U, 0x3dfdf67cbdd82505U,
  0xbd787a02bc6a7ec9U, 0xbdeb428a3d45a212U, 0xbe45e7ec3d2722fdU, 0xbecf5e4bbe4c0771U,
  0xbbf7d7e5bc8e0fffU, 0x3d0174963c6889a4U, 0xbded99703e51703fU, 0xbcf283443f056c94U,
  0xbd03ada33e0dc0feU, 0x3d24479b3e53bd17U, 0xbea87ddb3c3a3931U, 0x3e27e4193dffbbdcU,
  0xbed8bb543c02d5b6U, 0xbd03d068bd250386U, 0xba0d8f1d3dae2c21U, 0x3d9222a0bd2d07f4U,
  0xbd01dc1cbe5837c9U, 0x3dbc4d4b3d8e5505U, 0xbdbc6b1dbe2c3440U, 0x3d3b7a053d840f1aU,
  0x3d188f943e29f60aU, 0xbdc8eaccbe15163eU, 0xbe098bb43cf04d3aU, 0xbe58a1c13dbb05e7U,
  0xbcefdd1fbd1c293bU, 0xbd1d11d53e6fc195U, 0xbe73fdac3e562493U, 0xbd092760bc7a4502U,
  0xbe7901973c61f079U, 0x3dee30ff3df78514U, 0x3e383c0b3e53ba93U, 0xbe6758573c7d3e9fU,
  0x3eb7fa793d043525U, 0xbea7909a3cc43bdfU, 0xbd8b8535be99b945U, 0x3e67d592bd405344U,
  0xbd9b1418be34e50dU, 0xbd82912c3dbdadebU, 0xbe1fa2f6bf14f347U, 0x3db52ce53e3fb2dbU,
  0xbcaa87ddbd4a7e06U, 0x3dd7259dbdcf3a82U, 0x3e41b0fc3e6b2082U, 0x3e143badbdce01cdU,
  0xbe1c69b4be567aadU, 0xbc91e43dbee78ebeU, 0xbec66b04bdfd6c57U, 0xbeb95006bdb6b610U,
  0x3d56927e3d5c014bU, 0xbca27639bd48503bU, 0xbd1b321bbe8a90c6U, 0x3ea5dc35bde2c8b7U,
  0xbd24e81ebe8f6847U, 0xbbc0645fbe8e7c89U, 0xbe6b845dbe392d3eU, 0x3cc4cc85bdf47446U,
  0x3b5e447fbd4480eaU, 0x3d875997bdb9a12cU, 0x3dc005273d76fcbaU, 0x3d1a48a8bdd18affU,
  0x3e604480bec2c412U, 0xbdd30ea2bde849cdU, 0x3d2cffd33d15b769U, 0xbd5d4e883e44ef77U,
  0xbc40a7cb3c354e0dU, 0x3e34b1e5bd8f38dfU, 0xbdbb96c83cc228b2U, 0xbe5d53273db1c394U,
  0x3d8bbdcebe18eee5U, 0xbe7eaa013dc487faU, 0xbf0b7d1a3c420cd4U, 0x3d409ddf3e4157c4U,
  0xbd849118be38ad42U, 0xbcf7c830bcb387ebU, 0xbe8ad239bc51b554U, 0x3d62d88dbd881fe6U,
  0x3d56169e3e449de0U, 0xbe3c9075be77f5d7U, 0x3e6207e8bd946ce0U, 0x3d9bed523ebc4c4eU,
  0xbdeab37abcd18fdcU, 0x3e129b313c96db19U, 0x3dc3681abd398da5U, 0xbd401f6fbd4ec999U,
  0xbcca74f1bda4a2c9U, 0xbd85bf7f3cd636b0U, 0x3ceae8d03b067af4U, 0xbe56f4143e2595ddU,
  0xbba0f288be8e9c80U, 0xbe4084a0be15b1e7U, 0x3df0fd893d862c32U, 0xbdaad780bd466fb1U,
  0xbe005a8fbe800174U, 0xbcb03941bf06c9a2U, 0xbe562db6bed36288U, 0xbdb9c7923e1b26a9U,
  0x3e0a1f5c3cbb9c51U, 0xbddfc6ffbdd5ce2bU, 0xbe6490783d2bfca8U, 0x3ebb06043d7d6ce9U,
  0x3e3a34c3bc90bb28U, 0xbdb59c493eb75b18U, 0xbe812089bd6d8fe7U, 0x3b7581593cf46ac0U,
  0xbced5ea13d4095c4U, 0xbcc756febe30364aU, 0x3cf9c832be545656U, 0x3dc39a243e5c5446U,
  0xbdf25782bed0a877U, 0xbe3af47abde271b5U, 0xbf129bb9bea85e61U, 0xbd1c9bed3d137a95U,
  0xbd64d2c93e373cebU, 0xbe06f4edbd306ec5U, 0x3c144b033d0fecc8U, 0x3df8717abd44068aU,
  0xbdcab50bbe389bc0U, 0x3d07c0743e195c93U, 0xbe13f28bbd90ecadU, 0x3e35423cbeaef7ffU,
  0xbd24633dbdc507c6U, 0x3cab859abdd0cc46U, 0xbe35119dbcc275f6U, 0x3d953b8cbe7d5244U,
  0xbcf2e310bdddaeebU, 0xbeb7905e3dce0b2cU, 0xbcd07b84bc1c84daU, 0x3e4938aabd634b8dU,
  0xbd71fb533e4ad2a9U, 0x3d0384483da79526U, 0xbe20c1b6be4e4aaeU, 0x3e900c7b3e7a62c5U,
  0x3e1820743dd012e1U, 0xbd480df4bdc75c68U, 0x3def88ac3cd68263U, 0x3c1ece533df2fac7U,
  0x3e66a2fe3d2e468aU, 0x3e14b6703e31ce66U, 0x3d928086bd95446dU, 0x3e0e21833e74c34fU,
  0x3cac28c83d5a6418U, 0x3da20fee3d9bcdb2U, 0xbd749447bd010ae0U, 0xbc9b5eeb3da8ac14U,
  0xbe373fe6be803f75U, 0x3d4edaa0bd226b24U, 0xbe529cec3e04e890U, 0xbda3f9cabdb83140U,
  0x3d2dbcb53e025aecU, 0xbddb2a02bdf692a0U, 0xbcd482a2bd4744f2U, 0xbc91d4b93d9ae8b4U,
  0x3cf271e4bddbecc7U, 0xbc9f0e02bd717e42U, 0xbe016b353c3ad3b6U, 0x3d47e91f3da79a4aU,
  0x3c8891543d98cdefU, 0x3e907365be5ca85cU, 0x3d13f686be3fcf19U, 0xbdc5ff97bca8b2a1U,
  0xbe112ac73e9bf7a0U, 0x3dcd6164bdc493e1U, 0x3d7da7d9bd62d6f1U, 0x3d720e5c3c7bef93U,
  0x3dbbc75c3d9df121U, 0xbd6f3269bdbb58cdU, 0x3ca7aaaf3dd1716cU, 0x3d6731983ccc2659U,
  0xbf174204bd520e93U, 0x3dd369d33d3a837dU, 0x3d5a2b353dc9ee09U, 0x3e49fa75bdd912b6U,
  0x3dca3645bc9338e0U, 0xbde9f138bce6e6a9U, 0x3b270fdb3dbc2bd3U, 0xbe4f19a23dabf17aU,
  0xbcdc170b3cdbce43U, 0xbdcd5f453ce396a2U, 0xbe561349bd8143b0U, 0x3daa42253d9d47e1U,
  0x3e3c4e42bd7d855dU, 0xbd4310103d56f5ceU, 0x3cb675793df9ee8dU, 0xbe60bb5dbdaef1cdU,
  0x3e18d03cbc47d9cdU, 0xbc8e4212bf82b661U, 0xbde9da363d54b444U, 0xbede7358be242533U,
  0x3de86b3b3c935e16U, 0xbc44430cbdf07d2eU, 0xbdba7d013ca780f3U, 0x3d6ea44cbd8db305U,
  0xbcf628903d313793U, 0x3de61bbc3f1b10adU, 0xbe7883a33e7b97b0U, 0xbd8fa2003df99153U,
  0x3e02026c3dd94bebU, 0x3e03e1f1bd53fb5eU, 0xbd461ee6be85103cU, 0xbd3d9f6abdae21deU,
  0xbdbde715bd7052beU, 0x3d9af6aebe60cc3eU, 0x3de5846fbdf684a5U, 0x3ce8f869bd6d43b8U,
  0x3da83fc23da106d1U, 0x3e8b89223d681fe9U, 0xbd3633493ea3b4c3U, 0xbd957de3be06a983U,
  0xbe2246bfbd906e92U, 0xbe31fb9b3d273312U, 0xbd3ca9403eb25ac4U, 0xbe9b75603efd7c8cU,
  0x3e026621bd9b76ecU, 0xbe01b5e23e4e8128U, 0xbc97462fbd2755ebU, 0x3d816759bcb6c4c5U,
  0xbd93b1793d5c4605U, 0x3d6af102be28f4bbU, 0xbd8ecf9dbe395d30U, 0x3df8c2413e15febbU,
  0x3e1d26e13e938fc6U, 0xbeb2e0eabd81ff58U, 0x3e8613033e3044e4U, 0xbe1045d53e308abcU,
  0x3e4eaaeb3d56c8d4U, 0xbc5195bbbd909dd4U, 0x3dfcc021bdb2c103U, 0x3dca5a21be02af43U,
  0x3d9a0e543dd12136U, 0xbcda22d73e26ef0fU, 0x3e6ad8173e230799U, 0xbe5ca30ebcc59584U,
  0xbe5700673dc69cf8U, 0x3de5e7d1bd57f0b1U, 0xbe6321dfbeb6d8fcU, 0xbdd4d771be542249U,
  0x3bd70ca0be3bbbfcU, 0xbe084a5fbe4c4f8aU, 0xbc58b198be1d05f2U, 0xbe941d2ebe4f44a6U,
  0x3d1896113d628064U, 0xbc4e2d2d3dbc4cfdU, 0xbd6ae23b3cd0b6d7U, 0x3e97888d3dc7c52eU,
  0x3d0ecf4d3bc901c4U, 0xbdd068b9bd5faf5cU, 0x3d5094e7bd0255b4U, 0xbe212740bde2638cU,
  0xbe140e93bbe33779U, 0xbdeaccca3da6caf0U, 0xbd8b7b553db7d94aU, 0x3e8014a1be1bb0c7U,
  0xbd67ecdbbdebce67U, 0xbd797e30bda6be99U, 0xbe0b7f563d85f421U, 0x3d08f3693dcb6f32U,
  0x3d6278ffbeb70eb1U, 0xbea9dfffbdcf76b9U, 0x3d8ab5943dac940dU, 0xbe573c303e6e2c12U,
  0xbea54b95be03b7d5U, 0x3dfe03513e9a0989U, 0xbcdd78f4bcdb515aU, 0xbe1c8b79bc864a92U,
  0xbe903108bded70a0U, 0xbdd2dd75bcd7c540U, 0x3db5445abd8398c8U, 0xbe51a414bd7306a4U,
  0xbe1834e3bea7660fU, 0xbe007aa2bd027a96U, 0xbd104a9f3eb65140U, 0x3e2e33723e642460U,
  0x3d4e20de3e1a224fU, 0xbc7720283c9eec95U, 0x3dca0d64bdf868dcU, 0x3e39de5dbc9b56f5U,
  0xbe08c7e5be7cc433U, 0xbd05bac9bda46040U, 0x3d9209ea39ade62eU, 0xbc697c2d3deb4f8fU,
  0x3dc663cebd2f1fa1U, 0xbdfb4c403ecdc6efU, 0x3d557760be1a5d2fU, 0xbd8549d1be94fb38U,
  0x3df8e2e5be4518b6U, 0x3db50be5be60ac65U, 0xbd30c650bca86b60U, 0xbe4e55b5bdb4e44aU,
  0xbd951c193c58bdadU, 0xbe2a4f75be5793bcU, 0xbd52d771be07df32U, 0x3cc98d47bd0c7e47U,
  0xbe04a26bbcbcd2faU, 0x3be69d66bea41b84U, 0xbc8f3b63bde83ef7U, 0x3c4c69f7be386c6eU,
  0xbd47c33a3d733c5bU, 0xbe3f516abe68b695U, 0x3e41abdabe8393caU, 0xbdc0ff66be9190cdU,
  0xbc8f2270be05ce0eU, 0x3e26a7443d4b44dbU, 0xbe5a648abe79d50eU, 0x3dbd0c88be609c83U,
  0xbdadc1d7be898a1aU, 0xbd4a0c163e154a09U, 0xbddb391f3da49d9cU, 0xbcb2b327be0764fdU,
  0x3e2aa14a3dca956aU, 0xbe95fccb3e4374a0U, 0xbeabcd663d7ee329U, 0xbd953846be9c8a7aU,
  0x3dc9c58fbe4c8d9bU, 0xbe42d9ab3d80a0d5U, 0x3d80388fbdb6e630U, 0x3da8ef183db9ba1bU,
  0xbc14971cbe206a0cU, 0x3dff51523cbe7e01U, 0xbdf0da963c6ca6f7U, 0x3c69d181be650af1U,
  0xbc5bfbe23de8fc70U, 0xbdbfc6833d17f98eU, 0xbe76a9a1bd3c37a7U, 0x3cce2cccb9cd7836U,
  0xbdda0a653e351b6cU, 0x3e366170bdceffe9U, 0x3ead4576be21f9a5U, 0x3c861bc53ca6e852U,
  0xbd25140b3de195baU, 0xbe1a1594bdfeec26U, 0xbec73a9f3ef7fda9U, 0x3e91b4983cf24c12U,
  0x3eab1aec3d0e32dfU, 0x3b1a5ed93c2ed707U, 0xbf6f5e4abda49796U, 0xbd8b98c8be87104fU,
  0xbe68c04dbe5447b1U, 0x3db5723bbd7694afU, 0xbe962843bd1b2d59U, 0x3ef701e1be2dc437U,
  0xbd4171e73e0c065aU, 0x3d8008e1bdf086a8U, 0xbddb61c0be674f55U, 0x3dac8ec63deb754eU,
  0xbef953aa3e885166U, 0x3e2b6731be2d2a51U, 0x3e927cfd3e818b28U, 0x3e702248bf11acc4U,
  0x3d4c50b9bd8b064cU, 0x3e52feda3d820f0aU, 0x3ea1628dbc88faddU, 0xbeed069dbd01615bU,
  0x3e67fdc7bf219214U, 0x3e3a55f73c98e55aU, 0xbd3282abbe3db65fU, 0xbe6df985be47d613U,
  0x3bdbd1f53e0e6ba8U, 0x3cf9a0d83da5c8a4U, 0xbab3a2453ec74fabU, 0xbd5c11513cf39bffU,
  0x3c478ab6be1a3b86U, 0xbec32435be0d295cU, 0xbd1222d33d8fede3U, 0x3c947b0ebd5fcb09U,
  0x3dc35ea43dfec2bfU, 0xbc691d55bc86e3feU, 0xbd8667b1be181741U, 0x3db65766bcba55d8U,
  0xbe20915c3e84f9aeU, 0x3e0de2aebe745470U, 0xbb413a3d3d5d0f1cU, 0xbdf591603ccb0cb4U,
  0xbdc214b3bdae38afU, 0xbf24e35f3e90c2d4U, 0xbd58cbfbbe1c9bb9U, 0x3cce65133e66e7abU,
  0xbcbcedcf3ee40cdeU, 0x3cb5d5d13d67e934U, 0xbdb893293e84732bU, 0x3d39b4693dfc3887U,
  0x3db8c8e33d679c74U, 0x3c32e7163ec958ffU, 0xbe265206bc56c90cU, 0xbd244dabbd972dccU,
  0xbcab76ebbe55528eU, 0x3e56e9993c3d649fU, 0x3d4cee1c3d7a8054U, 0x3c593a613dbdff6eU,
  0x3e017ec8be3c6f43U, 0x3d51a9a33e23f031U, 0x3b8bb6b53e4542bcU, 0xbd411da1bd399708U,
  0x3e0198233e28cefdU, 0xbe000e6b3d6744e4U, 0xbc08d66d3e58fe3eU, 0x3dd81730b9ddbb82U,
  0x3bb0fc9e3e7d6e75U, 0x3d47c9d73d8b1c4eU, 0xbe4b0729be1b043cU, 0xbd5672093e09e8b8U,
  0x3e57557e3d10ce9bU, 0xbcb849a4be0de604U, 0x39add33fbd527302U, 0x3e837a1d3f1c7cd0U,
  0xbe07fe99be486be7U, 0xbe60462a3cac0d8dU, 0x3e347862be129388U, 0x3bd4ee3bbd0b31daU,
  0x3d8eae71be043db0U, 0x3d593335be25ed5aU, 0xbe00a50a3d215145U, 0x3e0409dbbdc2c081U,
  0x3db525e03e958250U, 0x3dfe86553e430d4cU, 0xbdb58467be96eda3U, 0x3ed149a13c9f96caU,
  0x3da51d583b69604fU, 0x3ba60ae63dc00643U, 0xbcbd67d0bc859e3fU, 0xbdcc29153dc3e878U,
  0x3e1fdc23be0f7d68U, 0x3d581b40bcbf3b82U, 0x3da8c7f2bdb6b9dcU, 0xbc1584e13c92f942U,
  0xbe5cd53abdf7161aU, 0x3e2c07ee3d9eb23dU, 0x3da254323e58bb97U, 0xbdf0b304bdb6a1d4U,
  0x3d15bc7b3db1ac37U, 0xbc2bb2103dbc0df5U, 0xbd396a203d1615c4U, 0xbe976e983d85fd70U,
  0xbdd5c220be1b7c26U, 0x3d0eb57ebdb81f01U, 0xbe757eabbcc16b13U, 0x3c18957b3c815475U,
  0x3db0dcbfbc85c399U, 0xbd718afbbcacf4cdU, 0x3e1517f9bd43dd7dU, 0x3d71b736bcc095bdU,
  0x3d3c8c09bdac4920U, 0xbd89adfabdbedd65U, 0xbd4d88973df4d50cU, 0x3d97a75a3d9baddfU,
  0xbe1159edbe183d0fU, 0x3d830e1e3e60cb89U, 0x3d059b9f3d13a097U, 0x3dab8443bd0e762bU,
  0x3dd5d90c3e872f5eU, 0x3d7722b3be9ebaa6U, 0xbd8a44e7bc0ced89U, 0x3d270877be04341aU,
  0xbd41e4273d99237fU, 0xbd3c06cbbe297d06U, 0x3e10f6d53e1d2ba3U, 0x3c6b5b01bd1d14fcU,
  0x3e358f793dc942b7U, 0xbeb056cdbd985074U, 0xbd3b5d1c3d82eab1U, 0xbde04b713e364484U,
  0x3cd594ca3c69618aU, 0x3d1a6e98be4b32f3U, 0xbe1c55fdbdc62a78U, 0x3decc3883eb132a6U,
  0x3cd9b3c73d798a50U, 0x3df8942cbdb2b6f1U, 0xbe6429a6be9c8103U, 0xbdd8dcd13e4394b5U,
  0x3e9bc5e4be146079U, 0x3e9aa0bb3de6297fU, 0xbd7a64b33b3dbdc3U, 0x3e76c985bc3acec5U,
  0x3d275f9d3dcfad22U, 0xbd81338b3c334fe4U, 0xbe4283f23e1c3b29U, 0xbdb76fbebde567eaU,
  0x3bcb40073db1c636U, 0x3d9847dcbdf57bbfU, 0x3e266a203da75b26U, 0xbe0f3f6c3e5396ffU,
  0xbc8472003b196287U, 0xbe4d75fcbdc92491U, 0x3d7a3b8dbdc436eeU, 0x3dc710dfbd0a2e9bU,
  0x3c49b7983cb35cafU, 0xbe31a88fbcf4a91aU, 0xbdfdf3e03cfd8b2eU, 0xbdccc78ebd92fc93U,
  0xbe0e49f13d790d36U, 0xbd46c6003e2490d8U, 0xbe4ebbdf3c9f697eU, 0x3df39d923e30d299U,
  0xbd4bab8e3cddfb49U, 0xbda9bc903de1838eU, 0x3c2137c3be10d9f8U, 0xb8d4fb053df696faU,
  0xbd6c46d53ee3f5d4U, 0xbe3ad9a5bd09b398U, 0xbdbb40573d3f50e0U, 0x3d25c2da3df9c617U,
  0xbe318e363ca28545U, 0xbc13e8ec3e5a5be8U, 0xbd025ed63c3d1d73U, 0xbd9267b1bc69826fU,
  0x3dbe34993e583ba5U, 0x3d8d26a33bbfb7dcU, 0x3c908f46bd2abbdbU, 0x3e56916cbe1aac3cU,
  0xbd5e7696bd38d5b8U, 0x3d861ce13e071b69U, 0xbd6467883d2b307dU, 0x3d82a8a53e440c0eU,
  0xbeca7e13be176251U, 0xbcd04cd6bcfacbe3U, 0xbde10f25bd59ab90U, 0x3eace3253e682799U,
  0x3dcbc2a23d2b24a1U, 0x3d1f5c1c3dea500cU, 0xbb94df35bdce7074U, 0xbe59b0ae3e006dccU,
  0x39fb7a3fbd817933U, 0xbd59489bbd61bd86U, 0xba1952203c9421deU, 0x3d7776dfbc983e40U,
  0xbd27d5c13e59ee82U, 0xbe186ca1bd5dbd42U, 0x3d8491683ea19a76U, 0xbd1740ebbe814f74U,
  0xbdbb0f3d3d270213U, 0x3e1af5c63c20f706U, 0x3e3dbfa53db5ca62U, 0x3da6e554bdbaeed2U,
  0xbccae4223e2ee070U, 0x3cddd5463d1f7f48U, 0xbdcaddd9bc9a54eeU, 0x3cc3dde73d3d3920U,
  0xbd51ca923da5264fU, 0x3e2f51ee3e201ee1U, 0xbccd704c3e4b53dcU, 0xbe414339be058ea0U,
  0x3e0ed4a7be0cb7caU, 0x3e4f238bbd1ee00dU, 0x3dbeec183ef86f7eU, 0xbdfedfd23e27c3d2U,
  0x3e4fe412be196b41U, 0x3bc7eb26bd8aa8c0U, 0x3e15605f3df43af0U, 0xbdc89d3bbe26069aU,
  0xbc7002643e0bc613U, 0x3a1392473e718d3cU, 0xbbb2103b3d9126caU, 0x3db93f20bea34b0eU,
  0xbdbc5b6d3e4c004bU, 0x3e410b803cf6c545U, 0x3d394b87bb99f548U, 0xbd966abf3debf519U,
  0xbcaf3769bdb01da7U, 0x3c6912d8be34adb8U, 0xbdece3f03cefcab4U, 0x3dbea430bd67fc5cU,
  0xbe069057be0fc26aU, 0x3e2d4a2e3d740586U, 0x3c8c4fa9bcc32389U, 0xbdd21ac8bda3101cU,
  0x3c89de7cbd8de1baU, 0x3dd19bacbc455f78U, 0xbd39030cbe5723caU, 0x3e28d085be10e158U,
  0xbdc673d23dbe6545U, 0x3de6c770be0ad3d1U, 0xbd87b00ebd53d261U, 0x3df6e07f3d2f80fbU,
  0x3e6d9d5ebc1f80a7U, 0xbcf2854f3c14013fU, 0x3b906f42bb64a69aU, 0x3e1a68183e18d56eU,
  0x3da4a0e6bddd1d41U, 0xbe8d48e1be16af60U, 0x3cad4792be443fcfU, 0x3e339158bdc5354cU,
  0xbd2820c33d79e59bU, 0xbd5ba3eb3e7465a3U, 0xbdcdada53dfb257fU, 0xbd06ef703db97c53U,
  0x3dade7fb3dba0070U, 0x3e168769bdb21340U, 0xbe1d71963e050c8aU, 0x3d3e91753e90ef78U,
  0xbda60aaebe99eef0U, 0xbeb1038b3be45aa6U, 0x3e5653f2bd98ef84U, 0xbda2fb893e3237f0U,
  0xbdda62fabe344115U, 0xbe062cd53d8ab29eU, 0x3cf0b3fbbe7eea04U, 0x3d8122ed3ddbbc30U,
  0x3edc6fdf3f0699b4U, 0xbe50a5413de6c03eU, 0xbee3b6e33d2d4158U, 0x3e80af52bd2716dfU,
  0x3e15007d3e7b8262U, 0x3dbe20e3be00537fU, 0xbcaa59b5bdc5ee99U, 0x3e94a5b3be005d7eU,
  0xbcb9a920bee2319aU, 0x3d34191b3e386b8aU, 0x3d53af0bbe1b3d2dU, 0xbd12453a3b24fd8dU,
  0xbe137246becc541fU, 0x3ddf43f0bdd40906U, 0x3e0211c1beab931dU, 0xbe8519babe7a9bd1U,
  0x3e36f4d53d00f368U, 0xbd676a413de2ecb9U, 0xbdd6924dbdea7898U, 0xbed48be1bdb12017U,
  0x3f0393a53ec86763U, 0x3e3fdf133e2469ecU, 0x3dc867e4bd034780U, 0xbe979475bbf887e2U,
  0x3ef40c36bde64e15U, 0xbdc3e990b8bb3b71U, 0xbd6562823eacf76aU, 0xbf04c3673edb7b89U,
  0x3d802159bd955121U, 0xbe9120eebcd0d8f6U, 0xbcedf99a3d2587aeU, 0xbcce2ceb3c589cfdU,
  0xbe29b6333d737131U, 0xbc815d673e68d6e6U, 0xbef90e25bdab827cU, 0xbe025b023daca2c4U,
  0xbe3e0e9ebe34bf95U, 0x3d82aadfbdd5994dU, 0x3e2b06e03e0f97dbU, 0xbd7e6ac03e62fd53U,
  0x3db783dabd9cd4f1U, 0x3cb731b9bc5712f0U, 0xbed0a9193deff726U, 0xbe2216c23db81f50U,
  0x3d739b85beb26733U, 0xbe58d2bf3e569badU, 0xbec39bbdbe192797U, 0xbe42fa193dc8b8f8U,
  0x3da030133e731cf9U, 0xbe16f6b63e2802ddU, 0xbd2f6cb03dd4a19bU, 0x3eb5c3dfbb095d09U,
  0xbcf8ff793e44ec52U, 0x3cc4f9cdbe530754U, 0xbe3bc1303e6ff343U, 0xbd808152bd227b15U,
  0x3cc38121bcc3d1bfU, 0xbe25c21a3e12c45aU, 0x3db2838fbe10f2e9U, 0xbe147ea3bc9fb29bU,
  0xba407c44be1e852eU, 0x3e2ef1b7bd0fbd54U, 0xbd5dfb63bc288be7U, 0xbe147485bd599411U,
  0xbe20f9a83e2a5f36U, 0x3e727b9abdc9e8caU, 0xbe87cff73ce88a52U, 0x3c70edbf3d60b1f3U,
  0x3c0ba4f3be63e7f8U, 0xbd68eaa03c335b89U, 0xbd45b7f73d6ca700U, 0x3a2fd7e8be258ae3U,
  0x3cffd7ac3e088c65U, 0x3e3c27e9bdfbddc9U, 0x3e4eec453e22c498U, 0xbe5fd0b13e279cd2U,
  0x3e556c30be007455U, 0xbeba3126bd87a3c5U, 0xbddf3135bda65499U, 0x3d24bc7fbecdf318U,
  0xbe4bd4e13d9e085cU, 0xbda5beddbe624559U, 0xbe6835283b2ac50fU, 0x3d755a5cbe33f85eU,
  0x3e94df25be3a4bb7U, 0x3e3e0fbfbcb15de4U, 0xbdff11113ddb3b4dU, 0x3e09d7aa3e38ffd3U,
  0xbe585ae0bdf9e86eU, 0xbd49a588bee45cddU, 0x3e2bc822be4eb8d8U, 0xbe8e59c4be9c2595U,
  0x3ba0fc203b7ec149U, 0xbda59366be0204a2U, 0xbe1c1c323dcff125U, 0x3e25b4443d8daa54U,
  0xbcb933563d7392b9U, 0x3da37663bcc47a79U, 0x3d9a29d0bf1bb76dU, 0x3e4ca340bd03a010U,
  0x3d26f4403e3dac7dU, 0xbe36c8b5bdcee2caU, 0x3dac31c1be3eebf1U, 0xbce4f747bdc52e6bU,
  0x3da8eba9bcf3d000U, 0xbe3fd9b1bcf6005eU, 0xbc59627fbcf4e5cbU, 0xbbb5687fbccbebb1U,
  0x3e43646a3e1b82acU, 0x3e80cb9d3c17f843U, 0x3de1c5c33d952bf4U, 0xbebc1b9b3ea7fba4U,
  0x3d2b6e3d3c0c0b6fU, 0xbd5305603dba39ddU, 0xbe8311e3bece4f99U, 0xbdae1a3f3dd52b8cU,
  0x3e6a3f59bd36dcd6U, 0xbcadd7ce3e7769c6U, 0xbd4a165e3e51eb08U, 0xbe2752f13e9a9e25U,
  0xbe1387fb3ec24c2cU, 0x3d3d15133d88b19bU, 0xbdc236edbe86a1ddU, 0x3cc7cf21bd36d23fU,
  0xbd91f3a7bde7cc51U, 0x3da377603df73532U, 0x3df3aa213df42451U, 0xbf08d7cbbe38f7d9U,
  0xbc25f8fb3e13b101U, 0xbd61b7423e15152dU, 0xba8670653ddb5dedU, 0x3d95bc983d59ff00U,
  0xbd20263a3e309854U, 0x3aa026c83e485418U, 0xbe297f813e1448b2U, 0x3da381d5bd2e770cU,
  0x3d755490bd521a7aU, 0x3cf6b672be6ae6b3U, 0x3e811d98bbe47bbeU, 0x3b1fefc63db8dc87U,
  0xbe2cef8fbe0aa9dbU, 0xbe37e92b3d78f261U, 0xbd67739dbd047fe2U, 0xbdaf7cf4ba8dad36U,
  0xbe2c4fd43e353bd8U, 0xbe142b24bd5e9a1cU, 0x3c0737d73d0462f0U, 0xbecf1eb43e146057U,
  0x3de7bedabea91047U, 0x3e0024c4be28843bU, 0x3d9e18cf3b2fc389U, 0xbdbf5bb93bb73484U,
  0xbe087924be9cf77aU, 0x3daec0aa3e30a861U, 0xbe0667903df9809dU, 0x3e1d05313dad784dU,
  0x3d1e0d80bddee2f0U, 0xbd5ec6433e4fbb03U, 0x3dca9e2ebd877345U, 0xbea509bb3e2d1c92U,
  0xbeb4b0bd3e57f65bU, 0x3e582c94bd2e518bU, 0x3dab1dad3de39117U, 0xbc1f0937bcd7134bU,
  0x3e65153bbe2a1bfeU, 0xbe89154cbd9c2360U, 0x3d9b09f23dde37e3U, 0xbd8dcdcc3e8d04efU,
  0x3db5f38cbd1dbd50U, 0xbed496a4bdded292U, 0x3dd71a1d3d577610U, 0x3c9786073b37b174U,
  0x3d85a2193c4c825cU, 0x3d317e033e1d6e61U, 0x3e640eb7be8f0bbdU, 0xbe8333ae3e1a1111U,
  0xbcb9a533bd3b4a82U, 0xbdb5a6603d3cd0dfU, 0x3ea6647d3dd1d5d7U, 0x3e04d13abd939d16U,
  0xbdab8e183e652c92U, 0xbeffb3dc3e1924c6U, 0xbdfc457abe821ee9U, 0x3db969713ebd548fU,
  0x3db474303cad714bU, 0x3e3e84f63d59ebc0U, 0xbe33ba553dc3b149U, 0xbdd14fcc3dc6f79dU,
  0x3c916c16bd01deefU, 0x3dfdd614be43e50bU, 0xbd0e8cabbf136183U, 0xbe6a0b753c864bf7U,
  0xbe3c2f603e6babdbU, 0xbeaeaafc3d1b38f7U, 0x3e097b783d2d93c0U, 0x3e5271ca3d5c5fcaU,
  0x3d37b93f3e294271U, 0x3c665a87be1a9553U, 0x3cc575f23d7eac10U, 0x3cab78c53bb6f3acU,
  0x3dd5a93dbcf6d704U, 0xbe3f7a8bbda0712bU, 0x3e8b1832be95f9f2U, 0xbd5aa23fbdd457f7U,
  0x3e51ece4bd4121d2U, 0x3c1fcecabeca42f7U, 0x3e22d1db3e4a0e79U, 0xbd76939b3e667736U,
  0x3da8adea3e621e38U, 0xbe84b143bd8b2225U, 0xbd88ba0e3e42ca37U, 0xbeb60ce3bcd90267U,
  0x3e0d0b24bca00ea5U, 0xbc182d663eb1ebe4U, 0x3d9969aa3ecbbef3U, 0xbea08c1f3e222d51U,
  0xbebc5e6e3e8a0ccdU, 0xbe6a27cbbdc9d13fU, 0xbcb198913dcab9bcU, 0x3e80fe8a3e513db0U,
  0x3d60e59a3e3b7a4bU, 0x3d88d9173e59f86aU, 0xbeb496f33da578ecU, 0xbe619ae33e3d4ccfU,
  0x3d9dfcfdbdffab8eU, 0x3c8860743d79ce60U, 0xbe0049bbbd843eb7U, 0x3d95a5ec3e45341aU,
  0xbdaa0c343e905636U, 0x3e90326ebdb56e72U, 0x3e4436dc3c208359U, 0xbb725f4abce1c605U,
  0xbdb13d3cbe879de6U, 0x3d8a2997be58f4a2U, 0x3d0bc229bd367a9bU, 0xbd85525c3e6b1e66U,
  0xbde17358bd77974aU, 0x3d2f5017bec75f59U, 0xbdb72edebe3a6f8cU, 0x3cc11506bde06417U,
  0x3de829c3bd131eb8U, 0x3b0c9ded3d4c45a8U, 0xbd95a8e2bdd04e62U, 0xbed0af8fbde584a9U,
  0x3e14ca733e29fc4cU, 0xbe8b86943d0d1424U, 0x3c754f35bec4fddaU, 0xbd2644da3d2bb198U,
  0x3e2797ea3dfd69a7U, 0x3d82e5e23e155ea6U, 0xbd7c8571bf12cc0fU, 0xbdf3162ebe24ba45U,
  0x3ea96433bed00c25U, 0x3d8ee7d23dcda482U, 0x3dc10e653cdfafceU, 0x3d98f281be9e9c54U,
  0x3e9e57c3beac7c5fU, 0x3e1d19b43d231260U, 0x3ce28539bc617a15U, 0xbd2057b2bd2d78abU,
  0xbdc9edd6bdcaef3bU, 0xbdb06853be944c2cU, 0x3d23d585be4830c0U, 0xbda49d783e4787c5U,
  0xbe212b2abefaea1cU, 0x3d73264bbeecf580U, 0x3d6d78a93d1b93c6U, 0x3e41017bbda6e545U,
  0x3c722b37be138d74U, 0xbeb9737dbe3c29f4U, 0xbccdaa19be587f12U, 0xbcf32b5d3ca01e41U,
  0x3e3704393e814bb7U, 0x3ea52ce7be468b70U, 0x3e03e953bdc0fc16U, 0xbc247f503d3140a0U,
  0x3be0ee2c3f56c046U, 0xbe8b736d3e975806U, 0x3e649999bdf81c8dU, 0x3ebc2d653e252aa5U,
  0x3df4f3e63e18bc9cU, 0x3d5eef733cbe4d7eU, 0x3d05831bbb24f5e0U, 0xbb97845cbe433710U,
  0x3dcf35cc3e1a4585U, 0xbd984a723e293c82U, 0xbd93b83d3b294eabU, 0xbe8a8fc8bd464a9eU,
  0xbe1caacb3e015675U, 0xbb9843cf3cd18d15U, 0x3cd19aa9bea8a523U, 0xbd74acc53cb9ddd6U,
  0x3e0bda3ebe89c11fU, 0x3e5d213abdc6c838U, 0xbd5e08d03e0c14ceU, 0x3e0b59ea3cb7d8fdU,
  0x3cae8affbe0eff1bU, 0xbddab565bde23d88U, 0xbdfe8ad03cbe6132U, 0x3da9e91d3c59e8e8U,
  0xbec6be953df67f1bU, 0x3d9b73ea3e0979adU, 0x3a85e6913d19422dU, 0xbe94516b3e730b16U,
  0xbcdaa28c3e95e9a6U, 0xbd39a0df3d844cc1U, 0x3ce18dabbd8526beU, 0xbdbe5c20bd955508U,
  0x3d975746be2434fcU, 0x3c2a1958bdd9d626U, 0x3d98568fbe133fa2U, 0xbe80b4f0bc522248U,
  0x3e2bc3893df9f77bU, 0xbd0ae7d1be1299e7U, 0x3dc9c022be65bd04U, 0x3e59ee78bdddf4a9U,
  0x3dd9de67bd92602aU, 0xbdd18c54bea40e9bU, 0x3e74596d3e0c1111U, 0x3d86071ebde4ea4cU,
  0x3da420f5be0056a4U, 0x3c98fd9abc917794U, 0x3ccbc6ffbe0bb9f2U, 0xbe286c7bbe077089U,
  0x3d8383823ddcc611U, 0x3db81e5ebd43f70bU, 0x3e4e164bbdda1186U, 0xbb85e9e3bc2c4f6eU,
  0xbef5fac5bd7989a2U, 0x3d3224d8be1b7770U, 0xbd8a44af3c0e7cb3U, 0x3e1cea89bd8a1c12U,
  0x3ec18edebd2656d6U, 0x3e4aa337be02da7fU, 0x3d13fe61be6a54cdU, 0x3e3efe1d3e05f961U,
  0x3dc225a43d6772e2U, 0xbe5bcaf53d80ee69U, 0xbe02310a3d6bc92dU, 0xbd74bdd2bfd01f12U,
  0x3e20e428bca47b54U, 0x3e6e6b6abe0b2454U, 0xbd5cc5753cf14659U, 0x3d87e4063de2353cU,
  0x3d8af059bb408784U, 0xbe23df52be3115b2U, 0xbe57329cbe064e96U, 0x3c8f7c803db8cca6U,
  0x3e00a51dbd3972a4U, 0xbd85a2053d1e7dc8U, 0x3cfff3fb3f26ae5eU, 0x3cbc5615bda02e29U,
  0x3ea4aeabbd1ee3fbU, 0xbca0cdaabd4a83dcU, 0xbe34b14a3d4504dcU, 0xbd89739c3ddcfa1aU,
  0x3ce5336b3dc3567cU, 0xbdd0416e3dd98ce0U, 0x3dbfb87d3e15b249U, 0xbd8b6f9dbeac0feeU,
  0xbddbe9cabe8961ebU, 0x3d89a7ffbdd1f656U, 0x3c4d7520bd4e3e7cU, 0x3d1302423dbd3880U,
  0x3d96eda6bd7c46e2U, 0x3de9b8fd3d814048U, 0xbd32320b3e944265U, 0xbdbfb134bde76413U,
  0xbd87e1a63ca0abdbU, 0x3d80ac443b316253U, 0x3ece209b3d900a38U, 0x3d379930be93fdacU,
  0x3e3700ab3dea6f0dU, 0xbe32c3ae3e18d990U, 0x3d56ac73bbfb9c4bU, 0x3bb83202bd1aaa7aU,
  0xbe863c20be831e1dU, 0x3e38293a3d9a33ecU, 0xbe9b31f73e0d0853U, 0xbe349acf3c5747caU,
  0xbd52320b3e538093U, 0xbdd787473e6d244fU, 0xbea552eabd16de2dU, 0xbd10b649bdd43b41U,
  0xbe8456813eadac9cU, 0xbe858901be172e6aU, 0x3e5e0547bd14c423U, 0x3e048b883dcbd294U,
  0xbd8e4bd83c99e43cU, 0x3de5db133e161d0fU, 0x3cce17a2bd257535U, 0x3e29e640bd44ae8dU,
  0x3e5caa54bd1bca40U, 0x3dbe289a3e048925U, 0x3ce632a8be44c7baU, 0x3e811876beae4681U,
  0xbdfa72be3be502e5U, 0xbec28fc23dd59a09U, 0xbe5a0ac13c276b0aU, 0x3b9565cbbc9bb608U,
  0xbd71dcfebe643743U, 0xbe6158563bd0cfe7U, 0xbe39c07f3e41769cU, 0x3c445094bd950e30U,
  0xbe6d4959bda3ff51U, 0xbdc4eabdbdef1f4bU, 0x3e15750e3ef7b709U, 0xbd3a7939be1e54d9U,
  0x3e837f533e233f52U, 0x3bca0849beaf2b31U, 0xbea7d1a5beeab766U, 0x3be54551bcfc62a5U,
  0xbdaaa2433e97a090U, 0x3e09dcdb3d9226e7U, 0x3e032b203d228d6eU, 0x3e27cace3e742ebfU,
  0x3ce5b4dcbd95a35aU, 0x3ed0235fbe9c6357U, 0xbed4e0163cc7b183U, 0x3da3acbcbe7d6953U,
  0xbdc4e8503e1b6a77U, 0xbe2f1bc0be9d7375U, 0xbcb36f50bd03017aU, 0x3d89048bbde3e028U,
  0xbcd1e8f2bdc7a9c2U, 0xbd80c8b9be020c20U, 0xbebe1e473ce84460U, 0xbdd4bb293dd7c23bU,
  0xbd564f133e0f5665U, 0x3deb8de2bdddabb8U, 0xbdbfb1dabd36582dU, 0x3e94d920be827f08U,
  0xbd9cd9eabea08459U, 0xbd96b1eebe323c89U, 0xbd1dc1973da90d25U, 0x3d9c16bebd4935d8U,
  0xbe4ff021bab94e7dU, 0x3ccb108fbdd2ad92U, 0xbd6dd4e6bda44796U, 0x3e5432e83da97988U,
  0x3e4f0070bdce0fc7U, 0x3d7710433d410bd3U, 0x3e8652973f2819abU, 0x3da420e7bd95ec0bU,
  0x3e4db502bdadb50cU, 0x3da6f9803df5aeabU, 0xbe031a573e312778U, 0x3bbe00b23cb49476U,
  0xbd234962be57fccfU, 0x3c8a6936bd2c2203U, 0x3d20f2bf3cacdfeeU, 0xbcbcb21d3db6d2ceU,
  0xbe3fe93a3d8ab807U, 0xbd4639133e414af1U, 0x3ebe4de43dc6fe68U, 0x3e24a51ebda6c536U,
  0x3ebaf3c2bbf64dccU, 0xbde544013e1057a8U, 0xbeb9252d3d619590U, 0xbd97c2a6be9b5b0cU,
  0xbdc18baabd116c67U, 0x3db24fc13d43338cU, 0x3d07ae7cbd207e7fU, 0xbdc8ab553bca443dU,
  0x3d4b69b43e34b6adU, 0xbdc49c2e3de9467cU, 0x3e4631d03e22dcf5U, 0xbe989a183ca598dfU,
  0xbeac93673dad700eU, 0x3d45f4123d9b6fe7U, 0xbe0c60643e8990abU, 0xbd6766513d157a2cU,
  0xbdd4e63f3e9aac7cU, 0xbce17241be0058dfU, 0xbe3141c33d41da40U, 0xbd9889643da79656U,
  0xbd455cf5be4b1e15U, 0x3d5a1fddbdabf074U, 0xbd97a27a3d1a4b3dU, 0xbd99f164bd56742aU,
  0xbe7d26773d617028U, 0xbe96943c3c953c50U, 0xbb8c0b91be44e3c3U, 0xbea9c531bda1e30cU,
  0x3d85eb0cbdf1df00U, 0x3c5086903e1b1fa2U, 0xbe012c8e3c03b734U, 0x3d2c08f9bcc6e44cU,
  0xbe043d163ebf2f5fU, 0x3e32c52cbde32417U, 0x3e515ff23c02a728U, 0x3eb26e17be17d3dfU,
  0xbceeb072bee31411U, 0x3d9d4001bd399d06U, 0x3c4ff9c4be008b6fU, 0x3db893113e269c5cU,
  0x3dd6a8d53ea715ccU, 0xbdf4d0e4be8e2601U, 0xbd35c5b23e2490dbU, 0x3da2ab533d8005c0U,
  0x3e4b3a60be504ce2U, 0xbe13a123be053c2eU, 0x3e82127f3d69b603U, 0x3ead9aa3be170583U,
  0x3c89c53a3e206a15U, 0xbe154ebbbdcc5657U, 0xbe51f4dbbda9ede6U, 0x3e0a3fb03e6ff6e6U,
  0xbdf1202c3d976919U, 0xbe2c6325be129cb3U, 0x3d02c0523db8163fU, 0x3db37baa3ddd8fc7U,
  0xbdc9200bbd57e515U, 0xbe1f4be83df03659U, 0x3df408ed3d2930b7U, 0xbc675f443da14660U,
  0x3e4ed2e8bd947b59U, 0xbd999e48bbdf0db6U, 0xbc2c5ca93e972b42U, 0xbd4d03213e23bd7cU,
  0xbb913ce2bea53809U, 0xbd76a535be138295U, 0x3dd38c3abdad8523U, 0x3e2bec3e3e532a63U,
  0x3c47241f3e6fe11aU, 0x3e24eed53e59f5c8U, 0xbda72043bd12304cU, 0xbcea301cbcfd7f3aU,
  0x3dbc89a4bcc9f02aU, 0xbdcf04233dd0351eU, 0x3f2ad0e13eabf2e9U, 0x3bf85e1e3d1c3c46U,
  0x3e02c442bdeddb59U, 0xbd90bd913c949dadU, 0x3cc090f93e51e24aU, 0xbc6e1df6bd08b7a6U,
  0x3e06b5ba3c81a295U, 0x3e07e2243d7f4f59U, 0x3db60c7abe17029bU, 0x3e1db3e43e5612bfU,
  0x3a79b311bd8c7178U, 0xbdcc06643d88d0a0U, 0x3dfda4bdbbea7a45U, 0xbd82c8e63c388561U,
  0x3e07f5993d7ee61eU, 0x3dea8172bda5cc05U, 0xbe1a5bd6bd4a210fU, 0x3ca9ba7dbafd9290U,
  0x3eb0a56abd6d1345U, 0xbeb3728ebddf41f5U, 0xbdcbe318be1874b2U, 0xb9970208bd1bc2a7U,
  0xbc765997bd674e4aU, 0xbd03b54ebd98c1ddU, 0x3c46610e3d4bae1bU, 0xbe24103abdb6240fU,
  0x3e15f1b9be226beeU, 0xbb7d30733dc3141eU, 0xbc9793a73d339998U, 0x3e4e85473d648d84U,
  0xbe01389037b03164U, 0xbdd1baedbd25606bU, 0x3e584258bd92636bU, 0xbd8e93b63de9b253U,
  0xbde50cccbe853b2cU, 0x3deb3a56bd936172U, 0xbe33020f3d0c87b8U, 0x3db52442be8acd25U,
  0xbd97212d3da0422eU, 0x3e388be93da54628U, 0xbdff2bd6be0576e6U, 0xbebd4f713e24f198U,
  0xbea650493dd56bf7U, 0x3b5a3a48be8d4cefU, 0x3bb98dcb3bdfb6b1U, 0xbdee7cf13d348384U,
  0x3e845d55bc78104cU, 0x3e00125ebdbe728aU, 0x3d8ad8c93dee09eeU, 0x3d8f4678be2c9883U,
  0xbc1e2176be01f8abU, 0xbdaa3edf3d7ec1ccU, 0xbc3f1bf83e1e4f41U, 0x3d8da104bd24c8c2U,
  0xbe4cf856bdce8ca1U, 0xbb8ea38c3dbecb60U, 0x3e1677a4bdd5fa36U, 0x3d565c553e0852c9U,
  0x3e0a2fd9bc81eaefU, 0x3e2caee33d044370U, 0x3df13c543ebe190eU, 0xbcf40214be53744cU,
  0xbdd53638bdf006b7U, 0x3dad181bbdd386a2U, 0x3ea4c3f23e929399U, 0xbeff4c03be48b453U,
  0xbd6fbc703d7e665cU, 0xbbe55697be2dc112U, 0x3e4c4eac3df23257U, 0xbd930ce0bd4393dcU,
  0xbee0798f3ce6fcb1U, 0xbe28a5e03e27c678U, 0xbe97f18abd6dea3fU, 0x3e6b82e0be0676d4U,
  0x3d6ef44ebde144a5U, 0xbe0201febe09a8c8U, 0xbe491a14bdad26caU, 0xbdf5d740bb3dd165U,
  0xbdc96c9abd29506cU, 0x3e8e047abe127135U, 0xbe0f7390be910d56U, 0x3eb56838be912afdU,
  0xbe00a8543d45e682U, 0xbe85e967bdc3c7a4U, 0x3e96a1953ca49271U, 0x3e0b0edc3e8186bbU,
  0x3d886c69be78a504U, 0x3c323883bca48659U, 0xbe0167453ca15362U, 0x3da131ad3e15a028U,
  0x3d8611d6bc11d28aU, 0xbc7c0b3f3b8e1875U, 0xbc1bf86cbea79ed5U, 0x3e9edc473d93ffb3U,
  0xbdf65d2c3e3a7237U, 0xbd4558ad3d98317cU, 0x3db9c40c3e92aa49U, 0x3d353b8cbdce680dU,
  0xbee73b8b3db7db56U, 0xbd231523bde1e5a8U, 0x3bcbee683e928d4cU, 0x3e8463e4be7df169U,
  0x3d8484d33da3fd68U, 0xbe0accecbe79d383U, 0xbd4d5c583e619604U, 0xbd945b69bd3e42dbU,
  0xbe2a03bf3d4df092U, 0x3e9c66c43d5259e8U, 0xbd8795e9bde099a4U, 0xbed7fd6b3cd15a3aU,
  0xbd7d70c5be21e812U, 0xbd9959b5bc0571bdU, 0xbe7fc2693e05384cU, 0x3da53c05bd4a51dbU,
  0x3e0813d1bdda5e0aU, 0x3e3d114ebda96993U, 0xbe9f38963d40e609U, 0xbd82b039bd68d3bfU,
  0xbaae9690bd61f1c3U, 0xbe53570b3e718d2dU, 0x3d87b13b3e08d303U, 0x3db3c5493e0f7857U,
  0x3c275bc4bebb58a4U, 0x3dd86eed3e197740U, 0xbea04dd4bd670725U, 0xbe89a7cf3e8b5c3dU,
  0x3d14e09e3d863319U, 0xbc2ff544bf077e4aU, 0x3e4126563d2e86edU, 0x3de1a3413e319955U,
  0xbe3210423e4ef332U, 0xbcadd6b93dd614b7U, 0x3db129c8bd1093eaU, 0x3e148e6f3d5e5c88U,
  0xbdb55cea3cf0989bU, 0x3e1cb83fbe608a51U, 0xbd240a123e799356U, 0xbd97b12dbe6d94c9U,
  0x3c2feac83cdc847aU, 0xbd8662173e734bb2U, 0xbe74e8b3bd5c228cU, 0xbd8fcb763d70f8b6U,
  0xbe6397e43e41407bU, 0x3e485b5b3e2acef8U, 0x3da84261be0455fdU, 0x3e36c147bb2d0d34U,
  0x3acb8a473c1ecc9aU, 0x3e039c77be1fab8fU, 0xbd6d0b833d27723eU, 0x3e8140473d75a5a8U,
  0x3dba7fbc3de9ca16U, 0x3eabe0443dec7f4aU, 0xbd5586fdbc5cd2b0U, 0x3e2f1ec9bee867c7U,
  0xbd78437d3ca4a80cU, 0xbdb6aceebd493c5aU, 0x3df9e1b3be946120U, 0xbd298c3a3e7a82ddU,
  0x3da63a143c83b996U, 0x3defbdf23cc640fcU, 0x3d94c350bd03827bU, 0xbe29add23f047f06U,
  0x3dc6d4893d9a5c4dU, 0x3e3929533e054d46U, 0xbd6fe483bca32999U, 0x3d8e6b97be8777f7U,
  0x3d3ef8663e958c1aU, 0xbca7c7de3e221f30U, 0xbd7a1dfe3e881d35U, 0x3d144b69be8d972fU,
  0x3d4a131f3e892312U, 0xbca62470be0e57b6U, 0xbc86334fbc705f89U, 0x3e4df44fbd356790U,
  0x3d7bbd26be74d40fU, 0x3e377b2c3e967388U, 0x3d1c4efa3e883b50U, 0x3e139a30bd1aadb0U,
  0x3cf3facebdcfec79U, 0xbb920109be39e4aaU, 0xbe8b232c3e9538e9U, 0x3d739eb3be0de079U,
  0xbd0ee371bdc52f09U, 0xbcc566a13d0c80cfU, 0xbc9d1a34bea45ef4U, 0xbe013cdb3da20314U,
  0xbda4b0213de1e107U, 0xbe1a9b4ebde36a43U, 0xbea34376bb5f5306U, 0x3d6cd007bc782ff3U,
  0x3da9671bbe0caa6eU, 0x3d1c6decbdf88f43U, 0x3e2b28093a286b85U, 0x3e08e7823d670965U,
  0x3cdf84c53d6c0fedU, 0x3d6be7a5bb56b68eU, 0xbd2f886ebe06d5f6U, 0xbb82e9afbd85e118U,
  0xbe8f08da3d45e91dU, 0xbdb42803bd924821U, 0x3b9d37783e4e262bU, 0x3e35496fbe3460b7U,
  0x3ebe944bbe5dfe73U, 0xbe8cafbabc7bef0bU, 0xbd37de68bd3c27cfU, 0xbe1d77253dd83504U,
  0x3d9bfe2fbe4bdc72U, 0x3e7a8ac23e6ab502U, 0xbcb2b61a3e3c9cfdU, 0x3d8268123dd42f42U,
  0xbdd3ed753c8ce200U, 0xbe397c8bbe0c302fU, 0x3d51cc4abe481a56U, 0x3ddc9e753dcd0743U,
  0x3d9515ffbd2688d4U, 0xbee42e3ebdc16683U, 0x3da227703d530b95U, 0x3d301247bd8261c0U,
  0x3df609d03d40f2b0U, 0x3e0a5e29bd8a57feU, 0xbe081b3dbde5448fU, 0xbe8ee103bd8950c7U,
  0xbe1d9354bdaad17aU, 0x3cde5c2d3d33321bU, 0xbbd503b23e3ccb67U, 0xba99bfe4bccdeb7bU,
  0x3d48e2083e43d4e0U, 0xbd84cc253e069a27U, 0x3e831741bcc50cffU, 0x3dda7c10bd7ff634U,
  0x3dafc91dbd296979U, 0xbde71470bdd31ca7U, 0xbd17bd74bf099b71U, 0xbc8009643dc954b3U,
  0xbc383ab43c7f2547U, 0x3dcf479abdc11132U, 0x3dda63963e28a1a0U, 0xbdce47bebd3d0f0dU,
  0xbd842cbe3d3f868cU, 0x3d6c69fabe0812b9U, 0x3eedfbd33dc61730U, 0x3d88729a3e14b0f0U,
  0xbe3ba0613d1effcdU, 0x3d0adecabe0b2517U, 0x3e0b6f8d3e2fbfe2U, 0x3df19af4be81b165U,
  0x3cc535873e473af6U, 0xbda9874e3e90b18fU, 0x3e18135f3e39be94U, 0xbc98244dbe6ca369U,
  0x3c0b6ab3be8106ebU, 0x3dd67c23be5f49adU, 0x3d99c994bdf4579aU, 0xbd96404f3e1a5caeU,
  0xbdfb7d633e7a257aU, 0x3cbd5b8e3e9fb847U, 0x3d98ab67bd61b277U, 0x3e47e768bd767e38U,
  0x3dac6a923dede32dU, 0x3d70f6f83daeb0b1U, 0xbdf7f12f3e290ccbU, 0x3d7d7b77bdf96b6aU,
  0xbe2e51f8bd5cbd36U, 0x3d8444f0bee063c4U, 0xbd9509ca38eb5528U, 0xbd8d629bbc740bc1U,
  0xbe26c4c0be77b6faU, 0x3e41a72cbc7b0b2bU, 0x3d49f2873d2b96c5U, 0xbdea6c113e236326U,
  0x3e036dfb3d9d0d4aU, 0xbd214a9bbcd2dcd8U, 0xbe5ce2bfbde3fee4U, 0xbd698c8abe54178bU,
  0x3d9d09f4bdbd6c34U, 0xbd6ae06cbce854bcU, 0x3df9a89abeaf158cU, 0xbdb68fc0bd5c29f3U,
  0xbe55313bbe115a48U, 0x3a850f8ebd65aa8bU, 0xbd0f7d0ebc2f9cd3U, 0xbc948838bc1cde2dU,
  0x3e1143d2bd4e58ceU, 0xbc81e60dbca5b8edU, 0x3d8df8febe8fdde7U, 0x3e40ff5a3e4e4af5U,
  0xbba9f7463dde7567U, 0xbe2c78f43bc7091dU, 0x3d6850583d89c19dU, 0x3cc2d3b53e2fc85fU,
  0xbdeaf685bc8fb56fU, 0x3c467df83e6a8b98U, 0xbd975fe23c1ea47eU, 0x3e081bccbe196f3cU,
  0xbe34c1513ebacfe2U, 0x3e97d21abe27786eU, 0x3e5a8c96bd810078U, 0xbe261e8b3ec10752U,
  0xbdb9c0ab3df97dd3U, 0x3e69edb0be40cb69U, 0xbe6604393d35006eU, 0xbdb9bc6b3e1f421fU,
  0x3dbd95dd3d999f6eU, 0xbd4344383dbd6e7fU, 0xbe2efbf53d03e3d9U, 0x3dd484bd3dd1537fU,
  0x3dc996be3946dde9U, 0x3dd994cdbcbb9b79U, 0xbdeae2f43d6611d6U, 0xbab3e608bbeef8d3U,
  0x3e1be5983dd70cedU, 0xbdf25598bd23329bU, 0xbe5cbde23e0bab4fU, 0x3d2adb0ebc9883bdU,
  0x3e76c6043e1997a9U, 0x3de66ee63e4d3fbaU, 0xbd9b9e93be4dbf66U, 0xbe71473abe32c797U,
  0x3da9e0b23e001d16U, 0x3d43be783e18a2e0U, 0xbe00221a3db3900eU, 0x3dce5dcd3ca31c49U,
  0x3c9f693b3d83128cU, 0x3e07757bbdda9c57U, 0x3cfaa50ebe863d90U, 0xbd0700cf3da4be3eU,
  0xbda16f4dbe3d9d72U, 0x3d52b085be0c1a56U, 0x3cbb7440be132364U, 0x3dd788b6be3ea852U,
  0x3d756755be1bc5b6U, 0xbe7e03ac3db9685dU, 0xbd149aa9bdec6471U, 0x3c7c1bf73da0e017U,
  0xbd1d0bff3dbac211U, 0x3e26ce8abcff0a48U, 0x3e172030bd63cab8U, 0xbe31a42dbe4ab99aU,
  0x3caecc61be92268fU, 0xbd17f8b23c57d414U, 0x3d6d9bb13e086ce7U, 0x3e599609bd9c3da4U,
  0x3e3828ec3dea09e4U, 0xbd8016bf3e10d2d3U, 0xbe33d8033d2a166dU, 0xbc37619f3e8e99ebU,
  0x3ebcb373bd002213U, 0x3de29462bddc579cU, 0x3be051b53ba29a14U, 0x3ea2e3f93bf5b537U,
  0x3dec93c6bdf5fa4bU, 0x3daf3da6bd62343fU, 0x3e6c09523e3d33a8U, 0xbc12d7cf3eb78db7U,
  0xbda8d8c7bd4de7c7U, 0xbd5b17edbce67a97U, 0xbdaadcf53dd1c6d6U, 0xbe2516403e938b1eU,
  0xbe182771bde54473U, 0x3d2b8ee3bc7ad886U, 0x3d192864bdf1fc63U, 0xbd44d5debda94c64U,
  0x3d18364ebe0b5cf1U, 0xbdc26ddc3e2bbda4U, 0xbe2095f53de1d7b4U, 0x3e31f561bc56eb88U,
  0xbe6fcb51bdf4d99cU, 0xbd4bf5bdbc07d6abU, 0xbcb174ccbde8d495U, 0x3e0c2a993d92632cU,
  0x3deb17a13d1d58baU, 0x3e4299e4bcb031d6U, 0xbe6c7a6abe5caf27U, 0xbc2898b93cdfe367U,
  0xbda57f883d13b46aU, 0x3e8b3f883e2d8425U, 0x3cd381c13d33dcfeU, 0x3dc60866be595351U,
  0x3e63c6a2bdb0405cU, 0x3d9190513da18118U, 0x3e2bd176ba957cb5U, 0xbca464613ddd8f89U,
  0xbde0149f3e17527aU, 0xbe4161cd3e37ae79U, 0x3e37de94bd580b03U, 0x3e49ac6ebe56fd94U,
  0x3df86bd13cd3cf9bU, 0x3d3973a1bce5367eU, 0xbc8c78fdbd1ad2b8U, 0x3e4030d9be09c396U,
  0x3e2036083d54d47cU, 0x3ed6e4043d8672a6U, 0xbe0078c53dc96792U, 0x3cc16d413e12c283U,
  0x3d7b0ac0bddc69b2U, 0xbc95d0e03d8b212dU, 0x3e17415fbd603f30U, 0x3e1602903d0282deU,
  0x3e0e3f38be0a3b94U, 0xbe6fa42fbe9e562eU, 0xbc7de075be8a93a7U, 0xbec08c0c3e0d6b1fU,
  0x3e3f7bd63de6fc9bU, 0xbe6ef6213e1e3f6bU, 0xbd0114a23dd860b3U, 0xbd4b9e3cbe181f8fU,
  0x3e5d6e0abe6dfae6U, 0xbd0950c2bdee0d2fU, 0x3e868c253d65586fU, 0x3e7ce494bdbbf956U,
  0x3df69d52bc774b6cU, 0xbd0ea3403d0c6d8aU, 0xbd89d2153dc1c5d4U, 0x3df892023ac589c0U,
  0x3de200643dadaf2bU, 0x3d0874ccbe05f0d1U, 0x3e029676bdb760d5U, 0xbc126d6abdf730eaU,
  0xbd09de593cbb9682U, 0x3e1d97dc3d0d5eacU, 0x3ddcef7dbd15ce50U, 0x3cc89ad33e20ba44U,
  0xbcc53601bd85cf18U, 0xbe130f90bc8fb420U, 0xbe7fae2abd4a1592U, 0x3b9ac6e3bd61d5c2U,
  0x3d8e4e203d3ae068U, 0xbdf326e03c21b6a0U, 0xbe57b293bcf9af53U, 0xbce53f96bcd7b6b6U,
  0x3d5caa8d3e168edaU, 0x3d62f9793dc3991fU, 0x3e029a6abe799101U, 0x3c7cba843d1c57ecU,
  0x3dcc938b3dadfc32U, 0xbc7a42e33c2f71f8U, 0x3d6d4fb93e1eebd3U, 0xbe0ccf73be00cb35U,
  0x3bd711893df11e65U, 0x3c7029f73d8b6164U, 0x3ce1b9ce3d0d1be7U, 0x3ce091413d9c7932U,
  0xbda2faa13ccd0b10U, 0xbdea192abda286ebU, 0x3cbef319bc09c77cU, 0x3d2a2b08bd95af03U,
  0x3d4de8bcbe099a4dU, 0xbdbc4ae03d8d1050U, 0xbdba52313db1838dU, 0x3dbba692bd89d5f3U,
  0x3cd6b8d73d0e62d5U, 0xbdeb699fbd50db8dU, 0x3d4fea903d82edeaU, 0x3e37b7e6bd6165f0U,
  0x3d5014cf3d501450U, 0x3b3ec5663c00a3caU, 0xba8ff3c23e6b52e1U, 0xbcb9279cbd22b088U,
  0x3ef843f2bdb75acfU, 0x3d1057d7ba712cafU, 0xbbf076403d0839cbU, 0xbb85547a3e0cda5aU,
  0x3d52b382bbf09f88U, 0x3c6606d3bdb40a7dU, 0x3d7bc68c3d81bb54U, 0x3db2e8fcbd7274f0U,
  0x3c7bad12bc2ade10U, 0x3b00448cbd221df1U, 0xbe28479bbf0071abU, 0xbdbd48a23e0b3f63U,
  0xbd31ef60bb8fb208U, 0x3c532fbc3e889e61U, 0x3e0b5b143bae4521U, 0x3cb4c9e3bd14e706U,
  0xbd05a696bcd353e2U, 0x3c7818623c044879U, 0xbe1ae51abee70c35U, 0x3d8782353cd267a1U,
  0xbdd7efae3de3e392U, 0xbe4075dcbdf0dd48U, 0xbd81b4423d12e2b3U, 0x3e086d01bd76a738U,
  0xbe02ffd03ec5ae09U, 0xbda50d9bbc97849fU, 0x3e39c1df3d8c0ff4U, 0xbcae2d0f3e58f091U,
  0xbd606a29be69262bU, 0x3bcfcf30bea859b8U, 0x3e36e70dbe62f0a0U, 0xbe997f233e981112U,
  0xbdfa42c53dc61ae5U, 0x3aea6ee7bd8c4634U, 0xbd23cc69bd59d57dU, 0x3e03369dbdba7142U,
  0xbd7e9ee13db542e0U, 0xbc88ea6dbce7f9d5U, 0xbd7ba9853e1eda39U, 0x3c2e38ceb8c38aacU,
  0x3e38d20abdc29352U, 0x3e3081b1bd3b4154U, 0x3deffce4bc25a33dU, 0x3d8f210f3db45617U,
  0xbde96f143d823e5cU, 0x3df570bcbb3aebf7U, 0xbe058d363e772a33U, 0x3d8b891a3e88e89eU,
  0x3e7123f03dbe9132U, 0x3d8197713ddf5eecU, 0xbdacd99a3e5183e5U, 0x3da1b714bca6ea28U,
  0xbe00fc6fbdfa8cb0U, 0x3cc3898f3e17a79dU, 0xbd05d2353e8c9929U, 0x3d0555e8be6fb0c2U,
  0x3c19cf6d3d4a9a60U, 0x3dcb8d283e2737d3U, 0x3dcebd8f3e8525d0U, 0x3e5272463d25a5a9U,
  0xbd609fa6bc2831c9U, 0x3c065ad4be3a5b87U, 0x3cc4f7e5bc613797U, 0x3d1081da3cf0f509U,
  0xbd0d94b0be1398a6U, 0x3cad69603d40f848U, 0x3e374c3abd3429d0U, 0xbd6e43cbbe974562U,
  0xbe0f68b63d878db0U, 0xbdfa82fcbdf2a9c2U, 0x3d7b2ad0beff295bU, 0x3dbdf570be6f7384U,
  0xbd1e48df3dd85a5eU, 0xbdb9aa83bddc3ca8U, 0xbd13068b3cd28b1eU, 0xbd928b37bcabbc00U,
  0xbe15b35f3e562d98U, 0xbdc63278be87757cU, 0x3e7d9d273d325caeU, 0x3d257f64be704392U,
  0x3df167263d997924U, 0x3e859715be4e8f5cU, 0xbd3b1d7abe38dbbdU, 0x3d27236dbde36f8dU,
  0x3d8766a6bd70d651U, 0xbdeed51c3bf621b3U, 0xbe19bdcabe391b68U, 0x3d8ca74e3e578c51U,
  0xbd21c5d53e0111aaU, 0xbc51d369be541564U, 0xbd2284ccbe8cc323U, 0x3dde35c7bc8412b3U,
  0x3d92dbdcbd8419c8U, 0xbdd76cc73e14bb33U, 0xbd3c4b7d3c23feb0U, 0x3c83a714be65af8aU,
  0xbdbd1d1abdd8e0a1U, 0xbe8038b13ce17647U, 0x3e120970be4a2a32U, 0xbdf471d43d6d7c10U,
  0x3e274bc3be33f8faU, 0x3e597dc83e1ed8abU, 0x3d233f30bd5b28f2U, 0x3c1322ceba7ddcc0U,
  0x3e0bab123e6f5e66U, 0x3d1de1a8bddd23d4U, 0x3c8f78a6bd7708b0U, 0xbd806cdbbe1e611cU,
  0x3de8ecc43e9f4c6dU, 0x3d3d24bc3de90f66U, 0xbdac6e84bd0917f6U, 0x3d8998ccbd02fe6bU,
  0xbdf906e03d333198U, 0x3e581536bdc91376U, 0x3dd5a81cbe28dbddU, 0x3d6b53a1babb08c7U,
  0x3da82e6e3dd310efU, 0xbe28ce9a3dadd93dU, 0x3e0c45f7be4de423U, 0x3db2df713e320177U,
  0xbd2deddabce7b804U, 0x3e65498f3e91825bU, 0x3d1a8a97bd3c193cU, 0x3deb794a3d070832U,
  0x3e422b983de05e6eU, 0xbd9fc859bc262e59U, 0x3e0b1f4abd7d1a23U, 0x3d94a9fd3ddd0007U,
  0xbd1de86d3d3bb068U, 0x3e315828bc4c1e43U, 0xbe3fef7e3c7eca01U, 0x3ddb5f6ebe37a702U,
  0xbd7c1759bdb3aee4U, 0xbca0f1ccbe6e9e9cU, 0xbcc948d0bc24c9baU, 0x3c950ea5bccd5224U,
  0xbc327a45bdc804a3U, 0xbc19e4d5be245fd4U, 0xbd9d4d5f3e3d6f91U, 0xbed6ec0cbe9132eeU,
  0xbe6d30343e0852d9U, 0xbdd3b2c43e420c6bU, 0x3d62a081be8df934U, 0xbd92c15fbd8b889dU,
  0xbd1bfbfebdf1be1dU, 0xbd870299be212d06U, 0x3e880e3bbd9ea941U, 0xbb0754ddbe9d4167U,
  0xbe6758f8be8db2fbU, 0xbd12824b3e858444U, 0x3c31c32abddceff8U, 0x3e6cf2b7bde80763U,
  0xbe31ba7a3da3eb80U, 0xbde7703c3e508442U, 0x3da6ef4f3d817c71U, 0xbdcd496cbd9d82b7U,
  0x3dad655b3e16a61fU, 0xbdc72e6c3da9c451U, 0x3d941005bdfcdd82U, 0xbe56bceb3d2a93d7U,
  0xbc4a0401bea36cf5U, 0x3eaf61b63c983a21U, 0x3d9ee6bb3e5073d0U, 0xbe0caf35bd38be27U,
  0xbe31e2aabe1116faU, 0xbea3166b3ddc40ebU, 0x3e9c0d13bd1bdaddU, 0xbe2210ebbcf97ecaU,
  0x3e2c0afa3e01bbf3U, 0x3db6d45ebe726f7bU, 0xbd43476abdcfde64U, 0xbe2304fc3e813c6fU,
  0x3dd9a38d3e270d62U, 0xbea9bcaa3ec194a2U, 0xbd8b9a96be7a2899U, 0xbce40ee63c14c608U,
  0xbd8ecaa1bb1887d4U, 0xbdb6573e3ca5a61cU, 0x3ddfe827beb615f5U, 0xbe0fcc173d7ca20dU,
  0xbea077d9bd0b44d4U, 0x3c06d66cbd1c62f0U, 0xbd952f6fbcfa2c6dU, 0x3c6925db3cc8b943U,
  0x3dd04c9b3e2832c8U, 0x3e167e083d4a7ba3U, 0x3d3d3a913e37a55cU, 0xbea62357bda0d645U,
  0xbd867ba63d7697faU, 0xbda494c2bca90dffU, 0x3c680a2b3e55ad11U, 0xbe20dc9bbe68a50bU,
  0x3da76831bcb6b32dU, 0x3d97990ebd9617d4U, 0xbe1e24d33cac3b33U, 0xb9c01920bdc762daU,
  0xbe9aa48c3e55c037U, 0x3cf4780b3da3bb43U, 0xbe8a8e4d3bc8e459U, 0xbdd288f63d1d4e59U,
  0x3d7f0f123c5d0abcU, 0x3df0bb8e3e6ef5aeU, 0x3e1cb3cbbc95d9ffU, 0x3d184ff4be0463d1U,
  0x3ea430283b126c45U, 0xbdb9fd4d3e611db0U, 0x3e0b68bfbd86e799U, 0xbc322aa8bdeeca8cU,
  0xbcf5bcf63e8a9f26U, 0xbdcc914fbe846273U, 0xbe36386c3eaabfe9U, 0xbdf3c7f6bd045446U,
  0x3ea4bd043e07d3a1U, 0x3d73f5ff3d9691ccU, 0xbc934662bdadccc7U, 0x3e57a76abbc8bcb0U,
  0x3c3e4336bc4aa796U, 0x3d8c46eb3d940288U, 0x3c35c98dbb856a68U, 0xbb8909d33d9464ceU,
  0xbbb5b792bb5bf631U, 0x3e5a46b63c98a5b4U, 0xbd15d4493b857ce9U, 0xbdc933db3c8fa806U,
  0x3e2184f6baa4dc3aU, 0xbc06ca5d3d1214bfU, 0xbbecdbf9bd4e7e99U, 0x3d9144c2bd6f8cd4U,
  0xbd5749673bf9ad6dU, 0xbd7d98fabca7c775U, 0x3d9182cdbce5ccdeU, 0xbc799165beb562b8U,
  0x3d59c3233dad6d64U, 0x3eb5c3c53c7bfb28U, 0xbb1a04f73cf507d0U, 0xbc50457dbcd0caa1U,
  0x3d9242eebbf27427U, 0xbc9ab1ce3ca81c68U, 0x3d2a28133d33384fU, 0xbcac9a0ebd062ad8U,
  0xbc0e3197bd552422U, 0x3d9efb273db35b08U, 0x3d18fe963d5d1f21U, 0xbb27a04c3be6916dU,
  0x3d03b0dfbd1ac4e4U, 0xbdda53c33d9d5e61U, 0xbc074a44bc24bf10U, 0xbb25b6723d6dc659U,
  0xbd96cd253d21d4ccU, 0xbcad23103cfb1bc1U, 0xbd2497803d020305U, 0x3d408bdfbdb15855U,
  0x3cb03789bcb2bc35U, 0xbccea43abc16fff3U, 0x3d3e1772bcdde8beU, 0xbc0150b23be47272U,
  0xbc9c5796bdb4b5e5U, 0x3d993a723d60dd3bU, 0x3bc6a09b3a6020b7U, 0x3caf115abe4ab3f8U,
  0xbd1a5184bca3f3cdU, 0xbb98ee843e42393bU, 0xbd12a37f3d16a166U, 0x3d4a69b93d599acbU,
  0x3ee3112b38f56cfcU, 0xbc86b9553c15292aU, 0x3ca618e6bcf66113U, 0x3d8b28903b978011U,
  0xbbc3dcce3dcb095aU, 0x3b29c223bd8879a3U, 0x3cf2dfccba8fb9c8U, 0x3d2d32ba3ccb0ddaU,
  0x3cd57f6a3df8871bU, 0xbcfc4d9a3ca29b51U, 0xbd792a463d829a24U, 0x3d1f0ba43db4f096U,
  0xbcc525cabcd913dbU, 0xbea95901bd2967c0U, 0x3d91f0443c8095e7U, 0x3db30210bc9be03aU,
  0xbd808d27beef00eeU, 0x3e341686bdb3e516U, 0xbe97a3df3dfb6157U, 0x3b4ad1b1bedfe7f0U,
  0xbd5649b03d731377U, 0xbe81dc02be3664b1U, 0xbe17709dbd66135cU, 0xbd5941d9be8508baU,
  0x3e13d6923d8a4294U, 0xbcfc57c23d9aff0aU, 0x3e7677dd3e0c287eU, 0xbe4eb407bc9be311U,
  0xbed79ce5bea2a7c3U, 0x3e78cdbcbd4e4545U, 0xbdd939973ccf366cU, 0xbeb84ac3bd66751fU,
  0x3e62c022bbfceed6U, 0xbe8cc3703d9425c3U, 0xbe71c80c3cbc4d1eU, 0x3dddf4f83e258803U,
  0xbdee51b33daf657bU, 0x3de217703b5a7f91U, 0xbdb2188abefdcf49U, 0x3d7ebfc13e537a61U,
  0xbf18a90abea8faf0U, 0xbe3462543d5ff640U, 0xbcca33eabc1fb1b9U, 0x3dac85bebe4585b4U,
  0x3e33165f3d8398aeU, 0xbe386e9f3db1e6e6U, 0xbd6d52ff3e41df16U, 0xbd198235bb9a9647U,
  0xbdc050153df0d295U, 0xbe68b8fb3ea34a76U, 0xbcf56d25be0d2d3bU, 0x3e2cba743db2341bU,
  0x3dea0facbd8f99c7U, 0xbe262c153e5529a9U, 0x3dc842d6bd28397dU, 0xbe96314f3dfc713aU,
  0xbd3bade13d45d0e5U, 0x3cf0731bbd99f73bU, 0xbe9afa293c6a3036U, 0x3d83f0c53c1ce0b0U,
  0x3cfc7c04bd55fb72U, 0xbd0f25c03e5b2a50U, 0x3ddce1883d6703baU, 0x3d8bce70be739753U,
  0xbd28ffa73e7d36faU, 0xbd39e17c39b381efU, 0xbcba4aa0be0189e0U, 0x3de6ded9be0b867dU,
  0x3dfc1ba13d4f7cd4U, 0x3ef3fa01bd408983U, 0x3bc1ddb83d5cb7a9U, 0xbe51204fbdde69aaU,
  0xbd9c8e46bd166126U, 0xbd9f57b8bd073a7cU, 0xbe46b9b0be8de38cU, 0xbe06f5ba3de3a4d6U,
  0xbd18e3d33dc8463eU, 0xbd2b9a56bddceeabU, 0x3e103166bd5f5840U, 0xbd6a181c3e3ab303U,
  0x3bced695bd8d0b9eU, 0xbd248ab43d988bd4U, 0x3caca1d4bd8e3dc7U, 0xbcc3ec943c90924aU,
  0x3db3dd353cf8c1aaU, 0xbe03c6eabcbd9b45U, 0xbbd30e753cb66533U, 0x3c5cc99abdf83720U,
  0x3d66fc1b3e5b4decU, 0x3d05a0febd8deef3U, 0x3dd2fed2bdec348cU, 0xbd79aef13ce8dbb1U,
  0x3c16ba29bcb441b0U, 0xbd00b216bda39a02U, 0xbd5176833e1d7ad6U, 0x3e0659a83c9917c8U,
  0x3be90bed3d6815c5U, 0xbde07fb7be2fc3d9U, 0xbc102cdfbb01bd30U, 0xbc5bd3b33d26e539U,
  0x3dbd7d45bcfec568U, 0xbd1206ff3b3101fbU, 0xbd5940863e17960dU, 0x3c2f4447bbbefe5aU,
  0xbdf6ed68bb72cc64U, 0x3c4bb2f33ce7bdb9U, 0xbe487da83d525651U, 0x3e6f0f0f3d41332cU,
  0x3dcea2983ddf00b7U, 0x3e0a88203dbc13fcU, 0xbc11882fbcb2c40eU, 0xbb2c9bd0bcd55c74U,
  0xbdec01e73c214d7dU, 0xbb26c7babcc45e26U, 0x3d9667493dab8ce7U, 0xbd952123bd02baafU,
  0x3e32552dbb578d81U, 0x3cd00117bd2dee96U, 0xbcf3246fbd49e2b7U, 0xbd65318c3d879f79U,
  0xbf5a59b6bc7ed03aU, 0x3e389befbd6e906cU, 0x3d8e78e93d569acbU, 0xbe3d0c5bbc9e82b7U,
  0xbd92f98f3e3bb0a0U, 0xbd4619c93c8808a0U, 0x3ce780f03ca85f37U, 0x3e2716cabe37d7ccU,
  0xbc8e1f83bd4406a2U, 0x3d6ccdf13b157771U, 0x3eab64e13e2420d0U, 0xbd803080be40c943U,
  0x3c82b3f43ca632d6U, 0x3d8b8fe13e83b604U, 0xbe0b17e8bce46b5aU, 0x3d2b753fbb90a04dU,
  0xbd498315bd4d1d57U, 0x3b68887cbd549494U, 0xbd24d8a2bcebbe7bU, 0xbda623773da64ba7U,
  0x3cf7ad493df23db7U, 0xbdcf2d71bb9d4272U, 0x3cefaac93c3a5862U, 0x3c99ab59bcd8a2dcU,
  0xbe5dbabcbd5190ceU, 0x39f0f4f7bad67166U, 0xbdc52df73a6f3238U, 0x3d05d3e83db42a9fU,
  0xbe2577043b5e03a1U, 0xb88460243d84f883U, 0x3dc40213bd1b33e4U, 0xbcaec4a63d1e10aeU,
  0x3cd9096cbd2db66cU, 0xbdb419d5be27f851U, 0xbd875fc3bdb8f756U, 0x3e47eaa03ded107dU,
  0xbddc54b5bdfacaefU, 0xbd4f1ec13e0e4f14U, 0xbd77a976bca40dc3U, 0xbe0308543bf8242fU,
  0xbd5d82033dfa9b32U, 0xbd8c9a7dbd33d1a6U, 0xbe018845be2b527fU, 0xbdcab3c4bdbed702U,
  0x3e2482aabd709413U, 0xbdd7b8e0bc71a50fU, 0x3e950ba0be5242beU, 0xbce46772bd7737b9U,
  0x3bfce626be00c781U, 0x3d00036abc9f6cdbU, 0xbe1284db3e542ee8U, 0xbdd50e64be356eccU,
  0x3cccff59bd09dbc7U, 0x3e0486ffbdafa0a1U, 0x3c7003653d8a6d8fU, 0xbdebb8863d91b596U,
  0xbe7cc8ef3dc12137U, 0x3dbcb496be15f041U, 0x3e819cafbde68c63U, 0xbe440cb43cf1b053U,
  0x3cc562953d5c98d7U, 0xbdb7db523d8489aaU, 0xbd065538bda5684cU, 0xbdcd22b83e49b92aU,
  0xbdbb552d3cd0e909U, 0x3b46928dbdea4bedU, 0xbd5fca7abdd7e233U, 0x3de0cc6cbdc7ab8eU,
  0x3d9873a7bb946fe7U, 0x3a27ec893d860936U, 0xbcec2e4abd8cb476U, 0xbd06b9ecbdff8d67U,
  0xbc730d03bd9d95f1U, 0xbe72bff5be502ec2U, 0xbdb8caa4bcb6748aU, 0xbce5ba043e167090U,
  0xbe19da2fbdbb0076U, 0xbe26465bbda8f6f9U, 0xbd8501cc3d0172beU, 0xbd899221bbbd9ec0U,
  0xbd9a0ecc3b3e4a30U, 0xbded13f8bdc34716U, 0xbd3af2e63a2374edU, 0xbd02e4243d6bfe59U,
  0xbd33ffcabdba78e5U, 0xbbdd2b5abcb73e94U, 0xbc82b3aebc44f526U, 0xbcc5af29bcb17ce9U,
  0x3ba605813dbbff7fU, 0xbb74e8ff3d5981b5U, 0x3de9d81cbdafed36U, 0x3e294f21b9aa3d10U,
  0xbd1de8fb3d24326dU, 0x3e06f28abd83ceddU, 0x3d9ece193e333bafU, 0xbc8314cfbce6860dU,
  0x3e190aa93d7cb7bdU, 0xbd3ea6db3da3521aU, 0xbdee61e1be676f78U, 0xbdf1e8283e8f3b77U,
  0x3e0d57803cd1ff68U, 0x3dd4f0a6bc944862U, 0xbd9667fc3e02c53aU, 0x3d66a6babde482c1U,
  0xbe91d6553d5064b4U, 0x3dcac81fbdb0ecb9U, 0x3de6388dbd791b04U, 0x3d45280ebea2d51cU,
  0xbd3dfdf03bb696a3U, 0x3e34cd703dc48f54U, 0x3c80b0e1be115af2U, 0xbd59cb21be35989fU,
  0x3e0b082c3df321e9U, 0x3d1fc230bc7d0f29U, 0x3e1729eabcb757f1U, 0xbd5e70dfbd23ed87U,
  0xbdbd70e23c559430U, 0x3e56ec9f3e15e585U, 0x3c65fa6ebcf5cd1fU, 0xbe344be63dc56e43U,
  0x3de4f2d4be6737e1U, 0xbe4992a4bdbee5f3U, 0x3d8c8cafbca610e4U, 0xbe2309f93d2262c3U,
  0xbbbf123c3d372d9dU, 0xbeae858b3dd1c08fU, 0x3e029f51be475e19U, 0xbe344774bdfc90a8U,
  0x3cc9aeb93d76166aU, 0x3df8eee13e236cc8U, 0x3d6fc52fbd900379U, 0xbdcaf9d3bd2f6af2U,
  0xbe2a283ebd499dd5U, 0x3c67f67bbe553ccaU, 0xbe53ab263dbae4a8U, 0xbe26ea633e04c1f3U,
  0x3d05137b3e97851aU, 0x3dd38d493c482148U, 0x3d3a9932bde804d1U, 0x3d0f42b8bd75e5dbU,
  0xbd346cd7bd87896fU, 0xbd83039fbe1ef8d3U, 0xbe2bce06bd6888beU, 0x3e6f69f73a39228cU,
  0xbd5316353c9594cdU, 0xbe1271ae3dffb55cU, 0x3df89e21be164bb3U, 0xbe5916983d3193e5U,
  0xbd802bb23ea49337U, 0x3e2fc2313da418ddU, 0x3d6371cabca390d1U, 0x3d36e180bcc013b1U,
  0x3e9bcfa2bbcba661U, 0x3df7c7b6be0c6ae9U, 0xbe8a57b6be4ee757U, 0x3e1c53e93d0d4a8eU,
  0xbe06c36c3e95f5b1U, 0xbe2583adbe10d698U, 0x3df52a39bd8daff4U, 0x3b843f483e1300eaU,
  0xbd5b4708bcaf5677U, 0x3de9ae3c3d940756U, 0x3d5679e73ea95e33U, 0x3db158a8bdfa7db7U,
  0xbe5933cf3e81ae97U, 0xbe33d7e43dab04a3U, 0x3ee8acef3d7e1f82U, 0x3de4cf96bdb61414U,
  0x3c67ec69bc84a6f9U, 0xbc519e503e080659U, 0x3e076d683d850e69U, 0x3be7d3babbf545d4U,
  0xbe41842839bb20bdU, 0xbe01cc85be75b91eU, 0x3dba1bb4bc4c3e8eU, 0x3bbcd4abbdf6dcb1U,
  0xbe0a4058bd70e391U, 0xbf047ef73d2618faU, 0xbe978ddf3c1098e9U, 0x3d3868afbe1224f3U,
  0xbd17c3473e94266aU, 0x3df40a94be9d1238U, 0x3c9500573d878671U, 0xbb02a19cbdefe5f1U,
  0x3d83b4b83e2155b2U, 0x3d14f714be2ccb0bU, 0xbdb599b9be475ca0U, 0x3dcfc3593ddedbe5U,
  0x3ded773e3d4fbc71U, 0x3c50f4253c6c1b41U, 0x3d5d21cfbea3d4f7U, 0x3da8b3e2be6d3804U,
  0xbc8e94edbda092a1U, 0x3ce5b9613e8730d3U, 0xbde0539bbc12c5ffU, 0x3dc092303d0c1db5U,
  0xbdbae4adbd085b4eU, 0x3d50fc5abc4d52aeU, 0x3d7ae4d2bc3ddfd0U, 0x3b86fc5ebe807684U,
  0xbb879b763e79bfb7U, 0x3cb06492be0c0d3aU, 0xbdcca9e33c862db4U, 0x3da10f713e4bd724U,
  0xbd256f273e339c45U, 0x3dc618823de38367U, 0xbc67813c3d398395U, 0x3d3d263b3e0c177bU,
  0x3dacd79e3e97ce31U, 0x3e0babc5be8357e2U, 0xbe89f82ebe12c8a9U, 0x3da29f073de26b52U,
  0x3c6262d83e8a7acdU, 0xbc7379fbbe02ab61U, 0xbdb6ff993c0efe1fU, 0xbeba79eabe060d06U,
  0x3ba77774bd2bb5f2U, 0x3e6e93e93d12e55aU, 0x3e0544acbcd1a31aU, 0xbd17a064be188957U,
  0xbb93c83f3d9aea63U, 0x3d3c24f93d74dd88U, 0xbd276bda3ccbd660U, 0xbe5015ca3d8860d7U,
  0xbe47f3a03d80c0feU, 0xbe0a09d4bcf7cd6aU, 0x3de8cb713dea6a17U, 0xbdff19703d807309U,
  0x3d35aa593e1e7b49U, 0xbe19074d3e2409fdU, 0x3e6a6a1dbd26a07cU, 0x3dd86c07bd647f2eU,
  0xbe3d2625bdb4d3b0U, 0x3e3961e0bd1eb0bfU, 0x3d8755883e606e45U, 0xbd8a4ead3e13f85dU,
  0xbde91d0d3cc2bfdaU, 0x3d978aa63c2f3c23U, 0x3e2221a5bd3a75a8U, 0x3d8f43ffbcce8a32U,
  0xbd7b081c3da8b2e5U, 0x3d6233d2bdf592bfU, 0xba8949a9bd24da85U, 0x3dadd8e53dd077a0U,
  0xbe2e43c03cb5f4a8U, 0x3c6b55963d4dca92U, 0xbd3975da3dd67476U, 0x3d77add7bc4e83d3U,
  0xbe1928883df88b2bU, 0xbd49000f3e2322ccU, 0xbd9739023dd4679eU, 0x3e1e199c3e649664U,
  0x3d3ddb493cad30f2U, 0x3c89e751bc6249aaU, 0x3d57f9e83d29b855U, 0xbdc56bdbbd603170U,
  0x3bcf54fe3dfdb3bdU, 0xbdd212a53ddc13ddU, 0x3df0ffb2bbdc3ddcU, 0xbdeb5a7e3d4ee19cU,
  0xbd87b3b53d3eb316U, 0x3daac5053b82fd9bU, 0x3e055de4bd2285f7U, 0x3d08e7d53e363f52U,
  0x3d81e2543d51cd6dU, 0xbdc8b7883d77cc90U, 0xbe456df83d144b63U, 0x3e3f7d54be047708U,
  0xbcfbf6783d30e8c3U, 0xbe08fda53da64fa6U, 0x3d258249bd9edcb5U, 0xbe8647133be1da18U,
  0xbdbfc19fbd3548d2U, 0xbd3d171fbe0f551dU, 0x3eb3cdcfbbdf07dbU, 0x3c351e0ebe2ab44fU,
  0xbe70927a3d8e563aU, 0x3d9ee60e3dc16fb0U, 0xbe01fe0d3d24593dU, 0xbd83d4a3bd2b8fe0U,
  0x3ed1b7203e4f3a69U, 0xbb9240c33da6ab09U, 0xbdd9900fbe9d1055U, 0xbef458e3bdc34464U,
  0xbd5af2803e116afcU, 0xbd8df240bd47b95dU, 0x3e4056fe3dfefac2U, 0x3cf65dc13e250f3dU,
  0xbdab7426be5c16e0U, 0x3e77cb89be18814aU, 0xbe3f8865bd26ee6cU, 0xbe2901c2bd2c4957U,
  0xbe46d4b53d7429e6U, 0xbcc7766ebead7d7fU, 0xbcc07d323c94ebf0U, 0x3dc45c4cbd2f0699U,
  0x3c241ab63d9b8aeaU, 0x3ddb7a613e9db6a8U, 0x3d9f66bbbdd434dcU, 0x3dd094d03cb75689U,
  0x3d9232493de58f02U, 0xbd5363c93d8cd97cU, 0x3e7f69e2be1720caU, 0x3d978ce13d72ea40U,
  0x3d271284bb87b752U, 0xbda1a5cabd8216adU, 0xbd6271ecbe0a4c07U, 0xbd9388d9bd8c2da0U,
  0xbe2039bbbe08ba96U, 0x3e24fddc3dc23b6dU, 0xbd74736cbe3f47e7U, 0x3e21296bbad449faU,
  0xbe48287ebd5b3d1bU, 0x3e04ba5a3d3cd369U, 0xbcb87eaa3d4c46e8U, 0x3e0d22053d2df4e6U,
  0xbda81c033c8545a7U, 0xbc312e9cbbbca3aeU, 0x3d99ae313e1637caU, 0x3cb3cbcabea9c2abU,
  0xbc092ecd3d3e98b6U, 0xbdc9f9623df781a5U, 0xbe25df833bd40bd3U, 0x3d8d2ea5b9d64226U,
  0xbdf684be3e248cf7U, 0x3e7360bcbb246dfaU, 0xbd4125a7be0421e5U, 0xb90ffb0bbce5f3ddU,
  0xbdbdf5d93e374332U, 0x3e727a0c3ddc0449U, 0x3e0f8dfd3d185efeU, 0x3e5fd07cbe48a545U,
  0xbd09cc66bd70374cU, 0xbd97a0d93dc8ab79U, 0x3dc5e951bca15d83U, 0x3d5f7f673d27821eU,
  0x3da456c93e15b766U, 0xbe9d605fbca3545fU, 0x3cdae2a2bdbd5d24U, 0xbcb3986e3ca6692bU,
  0x3e4c4f983c78e1afU, 0xbd6947d2bd123bc1U, 0x3d1d2af13dfc498dU, 0x3d938b24bd93509cU,
  0xbe41a67d3d6feee9U, 0xbe4a8fe9be53a192U, 0xbe61e3ae3e4e9803U, 0xbc8643ad3dcdbe03U,
  0x3d19c53dbda8916fU, 0x3cd96be73e856417U, 0xbd16602cbe6177bdU, 0xbe347ab1bf07cbc0U,
  0x3e2fd0813c89bf2cU, 0x3d78cf42be25c8e5U, 0x3dd4821dbda27ff5U, 0xbccf2d16bd89d3edU,
  0x3d0e98703e5068c2U, 0x3e4424f8bd6aec57U, 0x3c054d4fbdd5debfU, 0xbd0ed6c2bc389ca9U,
  0x3bc1e84bbe4b4aa1U, 0x3da427f83dae5d5dU, 0xbe4601af3c2f8b81U, 0xbedc74093c4a6413U,
  0xbc519ed73e9bccbbU, 0x3dde3d3fbd2d7e3eU, 0xbbfba2d63e49b43aU, 0x3e2cfaddbd9c4d34U,
  0xbd81201f3c3e5d89U, 0xbe9554753e85edeaU, 0xbe6efaedbe028e7aU, 0xbe7cf4573de3ca34U,
  0x3d38b26c3e2970a7U, 0xbe9626283d8b85b6U, 0xbd8bdaa53e947bffU, 0x3d1c330b3e863aa4U,
  0x3ea3fa01bdb2bfddU, 0xbd85bcf93e955fd8U, 0x3cc07915be8cee6bU, 0x3cfe3ddc3d9ca506U,
  0xbe27a3383d86ef41U, 0xbd702a423e821c7cU, 0xbe82789dbe973956U, 0xbdb276493e69a330U,
  0x3de437013d5a4465U, 0xbe24fec83e0438edU, 0x3d9b0f6abe510c08U, 0xbdc5ea8f3e65bedfU,
  0x3d85013d3dcd4d3aU, 0xbe936ed23ccba7fcU, 0xbe7210623e101424U, 0xbbd09798be877e00U,
  0xbe940c533d109820U, 0x3e43e33cbe1ac7b6U, 0x3d7918b63e733051U, 0xbe078561be34457fU,
  0x3e80199b3d124e41U, 0x3df878143d8da58eU, 0xbe9ca983bd4d4061U, 0x3b37bf453e656fe1U,
  0x3ea4ab7ebddd6c17U, 0xbe4ef6f2bd8f14e8U, 0xbdf9292cbdca2800U, 0x3c90219ebdad2884U,
  0xbd0c34833d9b0086U, 0x3d8c08a23ba71c0eU, 0x3c2698c03e3ccd99U, 0xbda4bff6bcf9e82fU,
  0xbdf34958bd0258b8U, 0x3cf863473d807778U, 0xbc594263bd8df847U, 0xbd93e622be25b156U,
  0x3ab4a0dbbdaf206aU, 0x3e1f0a4fbb8999d9U, 0xbd93d3e53d066126U, 0xbd99802abeaaf8b3U,
  0x3e16e4003d4aaba5U, 0xbd5edfcfbeea7e67U, 0x3cba78343e2ef227U, 0xbd92984f3e1d88b3U,
  0x3dcecb7d3d9881c5U, 0xbeb10304bd2c5bd6U, 0x3ce86497bca806d1U, 0x3e3a97b7bead009dU,
  0xbc6859b1bc848695U, 0x3d85e073bb7842a1U, 0x3e002f413e30f1d2U, 0xbe2126623df0abfcU,
  0xbdd60788be0c5c50U, 0xbe2cec2a3e66bd9cU, 0x3e9416613d49c3c2U, 0x3e5d4ec6be930f46U,
  0xbeb59c1b3e0c06d5U, 0xbcba70f1bda4d880U, 0x3cf8a6153e9d34bdU, 0xbd98d1c0be89319fU,
  0xbd98e5e8be5d2753U, 0xbce59161bcd0049dU, 0x3e4411353e0cecf8U, 0x3d06540b3d0ae9f5U,
  0x3da2974e3e3fdca8U, 0x3d307b82bd658195U, 0xbdda53aabd3170feU, 0xbd2cfff13e9708ebU,
  0x3dd299353da64384U, 0x3e3ce001bdb10edfU, 0xbd8dbd273e232a94U, 0xbebb2087bc440fc3U,
  0xbc9e5bb23dcd86f5U, 0xbd5098d73c1db833U, 0xbe0f7705bd36c237U, 0xbe7562f8be23a0d1U,
  0xbe5a2633bb704e8eU, 0xbce340e03d8d4e47U, 0xbd99d161bd961c1fU, 0x3df1e85f3d43bbfcU,
  0xbd504ba93de76bc5U, 0x3dd56bac3d2f0a86U, 0xbd18a9b13ddf1577U, 0xbd62a82f3d96e056U,
  0x3da4ed4f3d1e7035U, 0x3b8916943ce6c160U, 0x3c931eb5bcd195d8U, 0x3ad6bb5a3db04398U,
  0x3e1ecf77bd837de0U, 0xbcfaa50d3e2fff79U, 0xbd89913cbc8bc161U, 0x3dd734163d1b4dd1U,
  0xbdd25d05bde9f766U, 0xbe259c3bbda5be76U, 0x3d4b8429bc842aa8U, 0x3d87cd48bd6ed100U,
  0xbd98df3f3b5d4bddU, 0x3dc15319bc256469U, 0xbe11504bbc9409aaU, 0xbd64f7d83e26059fU,
  0x3d05486fbe26aa7dU, 0xbdc57901baadb3a9U, 0xbe5525a8bc727da4U, 0xbd0cfaa7bdba15a4U,
  0x3d1bd31dbe631bc7U, 0x3c61548bbe2fbbf6U, 0x3d92500c3d61133aU, 0x3e9b78e33e122ed0U,
  0xbc1c471b3e1f7704U, 0x3cd8d34c3d024960U, 0x3d296de3bb8d4e81U, 0xbe2f2cee3d1f8f18U,
  0x3e0bf11cbd91751eU, 0xbd981f99be51116fU, 0x3e35b81dbd1886e4U, 0x3e36a1de3e570584U,
  0xbf70ec893c072d77U, 0x3e24223b3d39e2a0U, 0x3d5fb9c7be2ba7b6U, 0xbddfa4163e08901aU,
  0x3e236d84be02b5fbU, 0x3c0ef456be5502b9U, 0x3e1a697f3e244ad7U, 0xbea1a9923e176643U,
  0xbca029eb3b8296b8U, 0xbdfd743a3e9edeb2U, 0xbdb93faa3e0f5138U, 0x3d57dc723c8533b8U,
  0xbe1f2e103d34646bU, 0x3d914f46bdc1ce29U, 0x3e57905f3e912951U, 0xbe98922cbd4dbd3bU,
  0xbe9b01d53d1df214U, 0xbdceab6cbd67907fU, 0xbe3f85a23cc39db3U, 0x3c6c32053dfe5c17U,
  0x3d5ae5cd3e2b9853U, 0xbc7b1221be01e6d8U, 0x3ce3a7c83a0eb9c4U, 0xbe88e4f5be32540fU,
  0x3df4f51d3c3b6aa3U, 0xbd71d56bbd44ec7bU, 0xbe1d0c013c988453U, 0xbe1bea13be0ef3ecU,
  0x3c3b6bbdbe849368U, 0x3e2785bbbc329902U, 0x3de442e43d5db851U, 0xbd67d4a8bd68d09eU,
  0x3eab0035bed9844eU, 0xbdc806b13dc33695U, 0x3bb197433d4e9a52U, 0xbd5e5043befb9c30U,
  0x3da57d6f3c162758U, 0xbc97e475bdc9a899U, 0xbe0023a93dca166eU, 0x3d2c096cbdb933a5U,
  0xbdcf21babde44a04U, 0xbeb2fbfcbd41be58U, 0xbd9b67aebe34687fU, 0x3d8e9760be4f9a62U,
  0xbd8032c13dab22b0U, 0xbc2c5a84bc6759f2U, 0x3dde33333e2e6664U, 0xbdb7eb3e3d06cea3U,
  0x3e0ddc35bd80eb9bU, 0xbde1abfd3ccb3667U, 0x3cbde6d53dd0f173U, 0x3e07ce1e3dd2b355U,
  0xbde835aa3e0a06ebU, 0xbe41738dbdb02f6dU, 0xbddf7f39bcf16a67U, 0xbdbc6223bd64acc3U,
  0xbd562125bdf53812U, 0xbcf6db593e0f62f0U, 0x3e7a0ad33d4aa04aU, 0xbd306ad33d7f8de0U,
  0x3df9d2cfbdd166acU, 0x3d1a90723afef73cU, 0x3e57441c3dfe5b90U, 0xba0787abbd171904U,
  0x3e0b4ea8bd5ce2a6U, 0x3bf534fcbdf6e943U, 0xbd61359dbde613faU, 0x3e5aa0be3cee57b2U,
  0xbd1930c83daeb7cbU, 0x3e612307bc74ea75U, 0x3d71f2153dc10b0eU, 0xbd401ebebd5882d9U,
  0xbd123bd2bcc9572cU, 0xbc35c303bd1ab6c1U, 0x3da70ebbbd3c9535U, 0x3c8fb34abdeeb020U,
  0xbcac300abd1c6600U, 0xbd3ac3453e20597bU, 0x3dafc3333dd4819cU, 0x3e1003493c8f0a0bU,
  0x3df6c232bc0d3ef5U, 0x3deeacad3dc3f5d9U, 0xbde5061abd9cf447U, 0x3dfe7db63d905e3aU,
  0xbd398f08bd188eddU, 0x3cabcf3f3d838db7U, 0xbd8df70d3deadd62U, 0xbdbd9b75be6d0628U,
  0xbe013f13be4056a4U, 0x3bdfc80abce982e6U, 0x3e0e8eda3e1803d5U, 0xbe4945f53e28f127U,
  0x3ceffea7be71ec87U, 0xbe013fa5bc9d7a82U, 0x3e4c1668bdcbc3ceU, 0x3d8a7e2b3ea58127U,
  0xbe4f6a87bdf1d366U, 0xbdb64ed03e0121b9U, 0x3e47714b3bc4dd76U, 0x3d44ade43dd426f2U,
  0xbd41974d3de9fb23U, 0x3db39e4ebb39eb34U, 0xbe0e89c2bd69154bU, 0x3e106d2b3b88da14U,
  0xbcf91d353bf66048U, 0x3d89fa43bd446f46U, 0xbe1fa7923e0884f1U, 0x3dd7bd563e713becU,
  0x3ded8d523e05bc19U, 0xbe1b12d13ded28efU, 0x3dbe16a5bd2279c3U, 0xbdd0137c3ce5decbU,
  0x3e8cea283e4fa5c7U, 0xbe0dbb023e38fce7U, 0x3ba489a93d60d46eU, 0xbd84e28b3ee14b11U,
  0x3ced6b78be1dc73bU, 0xbd9c9ea93d99b73dU, 0x3d5d5a0c3cdda730U, 0xbd75c44fbe2c2b84U,
  0xbd40537ebdc0792cU, 0xbe16bf1b3d36193fU, 0x3e1605163d96704aU, 0xbd5a7013bbf11f45U,
  0x3cfce72ebcde1130U, 0xbde665d3be118286U, 0xbce1d786bd6316bfU, 0xbd861b51bdc154fdU,
  0x3bc25a82bd8b5b6dU, 0x3d91a61d3d659c33U, 0x3d5e6a9f3d81649dU, 0xbd8330193e969eb4U,
  0x3dca5ccdbe193967U, 0xbe4a3da0bbc6befbU, 0xbe228d813d54acb4U, 0xbcc96aaf3d2579feU,
  0x3bec8454bd50d473U, 0x3e222897bd6e996bU, 0x3c14d1103e26b2cbU, 0xbdaa7f4d3dbdf749U,
  0xbcbccaf3be75d337U, 0x3c74370d3b2597a3U, 0xbc81630abd108496U, 0x3d54f4953c8b5cf5U,
  0x3d7079993d455780U, 0xbe08cde53db7a978U, 0x3e11b066bcfea6ecU, 0xbd4d69ba3d8fc8faU,
  0x3cb5a09abc4a344cU, 0xbe5580eb3dc6c132U, 0x3e2b3074bc36be51U, 0x3e495269bda90990U,
  0xbd053748be270a79U, 0x3df1ac433d093439U, 0xbcb309bbbe0473bbU, 0xbe018ae4bd0b6d1aU,
  0xbbd41def3db2097dU, 0xbe2ecdfbbe0045efU, 0x3dc5cb83bdc70a13U, 0xbd626cb4bd9229f1U,
  0xbd9e91063d2d46e4U, 0x3d382850bddc0f77U, 0x3ca74d36be818d20U, 0x3eb1b6d93e41859fU,
  0x3b43ec333c460b94U, 0x3e102e28be02f1faU, 0xbd9516e1bd69205dU, 0x3d79ab09bd2e27cbU,
  0xbd1568c73d09ed8aU, 0xbe378daebcef00eeU, 0xbeda38a9be31b9cfU, 0x3ca2f1853ccf231dU,
  0xbe0fc2893d2da4a6U, 0x3c96b784be8a4e38U, 0xbb9ce64d3cacbfd3U, 0x3c5e07ee3d9a859dU,
  0xba9d202ebd90368eU, 0x3e3822efbe2aedc1U, 0xbdcb1d6bbe1d9b5eU, 0xbcfc60fd3d827df6U,
  0x3d440703bceaad91U, 0xbe23f83b3dbac499U, 0x3d37a299be987f27U, 0xbcf6df2d3c3491b5U,
  0xbdb29ad4be24c44bU, 0xbd01340cbda61110U, 0x3e64d16bbd3a2931U, 0x3d47bc2f3deb5a8bU,
  0x3b3d963d3e4be759U, 0xbe24e578be3ab9adU, 0x3d29ba5cbe075992U, 0xbbcbc035be16f4cbU,
  0xbd96122d3e0abe93U, 0xbe831f183d0ad863U, 0xbcff916d3d0dd9a3U, 0x3ced1490bb97c0e3U,
  0x3dfb95623d92a01fU, 0xbc66a58ebdc7f071U, 0xbeb873983db28a89U, 0x3b95a70c3e0ccd3bU,
  0x3e0def03be8ad4e1U, 0xbd349601bbade99eU, 0x3d838eeb3d4f7e82U, 0x3ebfcbfbbdcb1d29U,
  0x3eee5126bcefc318U, 0xbc0447123cd5020aU, 0x3e15a8903e8fa9deU, 0xbb9a4b1e3d2b80a6U,
  0x3e602c6d3d9a6e70U, 0x3db0838e3b303fa3U, 0x3dbd94663b867642U, 0x3dece5b7bdeb9912U,
  0xbb80d07fbe4e9d7dU, 0xbdca12323e5ea51dU, 0xbda7cbc33dddb2e7U, 0xbdd8b171be50db2cU,
  0x3e125391bd322da4U, 0xbc4f760cbd404d50U, 0x3b1c8248bd90478fU, 0x3d2e2fc6bd0a1ab6U,
  0x3db2c3f33dd96fcbU, 0xbdb7ea2cbe683dc4U, 0xbc6604523dac0962U, 0xbd1687ebbdb93477U,
  0x3ddcb4623d1c9176U, 0xbd7d569dbdc5859aU, 0x3d4e5854bae1194aU, 0xbe41cc0fbb869a68U,
  0xbce0584a3ea96fd4U, 0xbe62b3b8bd0ca858U, 0xbd861f70bc9726baU, 0xbd8324fdbd8c22deU,
  0xbe1e96e53dd77876U, 0x3d97bd3e3ecdd749U, 0x3e1c2d9f3d2f897cU, 0xbd3d61cc3e281ae9U,
  0xbbaaef46bbf31735U, 0xbd6e346fbecd3163U, 0xbebfeca0bddb2fabU, 0xbe3cd425be03f87fU,
  0x3eeffd1ebe26c1a2U, 0xbbe61b783eb9cc5cU, 0x3e8b3ca83d8148b7U, 0xbe0b675cbe159538U,
  0xbe6a87f43c83b9bcU, 0x3e45e623bd7f3049U, 0x3d2123e6be4aac46U, 0x3d0f7e1e3d315cbeU,
  0xbe8bed4abd345ec0U, 0xbd85f8a63e39c042U, 0xbe92e2a73df88cdcU, 0x3d9ddcf2bdf4304cU,
  0xbd47f2973e20d185U, 0x3b886e6ebdfb3d4cU, 0x3e65788cbe7bf549U, 0x3d9054f33eac8a26U,
  0x3c456f953e618077U, 0xbdee76683d9acddfU, 0x3e478c4f3c264f0eU, 0x3cb94b9e3d018edbU,
  0xbe18e30d3e17fa99U, 0xbde298653ec1300dU, 0x3e81a3a73d82451fU, 0x3de40183be954ba9U,
  0x3dadc4993cc9aeebU, 0xbda262363cf33f38U, 0x3e3aaf9e3e090a44U, 0x3df2c23fbce718e3U,
  0x3c8704b8bce52546U, 0x3e86ab9dbe851426U, 0x3d9c0ef2b9d69268U, 0xbda45265bd71a763U,
  0x3d9c61063dc593d3U, 0xbb9b1c2abdad9757U, 0x3dadbda13e345eeeU, 0xbe8c51aabd36f3c7U,
  0x3d910020bd78f2edU, 0xbcced5463d896571U, 0xbd656e8c3e241cdbU, 0xbe3190003cd2c314U,
  0xbe28191abe3f2b8fU, 0xbc631c67be2c4e7aU, 0x3e174b99be7d59e0U, 0xbced06463eb57b85U,
  0xbb62bedebd4dccffU, 0x3cae8e19bde402e3U, 0xbdb6935fbdbddc64U, 0x3d684c883d45c15bU,
  0xbe079ca7bcee3f52U, 0x3e39ae4ebc1e9522U, 0xbd752d4cbdedad34U, 0xbefe83f33cfc7755U,
  0x3c3c076b3d5f20ebU, 0xbe2592143de6e636U, 0xbd6dd98d3d0e919eU, 0xbd5863bc3d111d0dU,
  0x3e84790bbd881094U, 0xbd19b897bdbd7109U, 0xbe98e2f13e0fadf0U, 0xbc36217dbea4f652U,
  0xbd03020bbcdbf4e8U, 0x3c43cc123e50b030U, 0xbe95ece33da97767U, 0x3e0a0d84bd1293f8U,
  0x3c87ff09bd6beb36U, 0xbdaaf1b6bdd11cbfU, 0xbc8ad409bdd957b7U, 0xbd77cdb13e19e81bU,
  0xbd0564fd3c80218fU, 0xbdfc2ada3d0e86fcU, 0x3e2e65b2bd5e799eU, 0xbe9cb9a7be17baecU,
  0x3e91f6b93e25f3e9U, 0xbd9f23da3dc0a2dbU, 0xbe78953c3d484779U, 0xbc9a926d3dbb45f4U,
  0xbf8d16823ea4b5d9U, 0x3df97f1e3c1aac92U, 0xbd8fc4efbd53c7eaU, 0xbb85d7a4be30d162U,
  0xbcd7f7f43c68830aU, 0xbdd6ef5c3e1e0cb7U, 0xbdb5bed4be9708e8U, 0x3dab8d8bbcc377e8U,
  0xbe7adaeb3dc34bbfU, 0x3d9868d7be05a630U, 0xbdf7d57e3e0c69a7U, 0x3d73cc97bcaae3a9U,
  0xbe634a70be1da77bU, 0xbd9c03d63e09dd7eU, 0xbda326bcbd490964U, 0xbbaa3a7d3c2a8545U,
  0x3dd7e8cf3df06374U, 0x3d8f4eccbdad8efdU, 0x3e27c4223d444d44U, 0x3db573003d6574f5U,
  0xbd903dbb3d1b369bU, 0xbd89b7663e3e2f6aU, 0xbda9c7973d39e4ddU, 0xbd9e7c8a3db200c9U,
  0xbc3b06a23e3e88cdU, 0xbde2d096be0186f4U, 0xbd5c44743d86e1baU, 0xbe0c85cd3db9f7feU,
  0x3cb058f9bd26eaefU, 0xbddfb1f5bdcea188U, 0x3d03d0403cdde95cU, 0x3e11a65f3a3b81c9U,
  0x3dfd0c03beb40dbdU, 0xbc98cff8bdfe40e5U, 0xbd457eedbbb561daU, 0x3d07f87cbc5ebe94U,
  0x3eaafe973df62493U, 0xbe6476e6bd68eaacU, 0x3d92edbebdcb8618U, 0xbe753476bdf7e99cU,
  0x3dd825b9bda757fcU, 0xbcf3fc8c3da6b3daU, 0x3e103d84bd80043eU, 0x3c935a17bcbe90a2U,
  0xbe3cbbad3dbbc8b6U, 0xbd1120883df03634U, 0xbdafec7a3e972a0fU, 0x3db845123d401c35U,
  0xbe901cbebe6c369cU, 0xbd8aee0f3dbe80d1U, 0x3dffcf2c3e701736U, 0xbd6f66653e930e58U,
  0x3d9e83a4bd47cf94U, 0x3cbe7fdd3e1d4d98U, 0x3d3e2709be98cebdU, 0x3e817cbebdea027dU,
  0x3d42f691be4daa0fU, 0x3c09c4f2bc75e3b4U, 0xbe56d2b53e6e14cdU, 0xbe2463263d537cf0U,
  0xbe7c86443a82516fU, 0xbe3bf8d8bd4ac18fU, 0x3e11baa6bdae158fU, 0x3e4fc5fc3cb331a1U,
  0x3e4260223def4d42U, 0xbde5eec2be2ffc4bU, 0xbe114234be04feecU, 0xbe0e9e96bde1fe82U,
  0xbddc04fabe58cc04U, 0x3e42b8dc3de6b6f4U, 0xbe9688273d88e527U, 0xbdda9e583e794eddU,
  0xbe06f7123e0845ccU, 0x3b04a760bd9ad025U, 0xbd6db32fbdc80acdU, 0xbe1a54b83e603259U,
  0x3e5d4be13db53dc8U, 0x3dd47808bded7b72U, 0xbda96980bdc22755U, 0xbd181d26bd440f9fU,
  0x3d013e173e3c1f4dU, 0xbd8ac2dbbdaacacdU, 0xbe279ba4bdaf9ea3U, 0x3d858146be11fc98U,
  0x3e4fee023c108fcbU, 0xbda4de113a909811U, 0x3ce7f921bd160f45U, 0x3db53b53be099270U,
  0xbdb1825ebd0014c5U, 0x3de32976be1291ecU, 0x3e713a453d8c01ceU, 0x3e5ad20cbdc85bc1U,
  0x3e06808a3e11bcd6U, 0x3e19187abd442cdbU, 0x3deff860be3c637dU, 0xbd30fbda3c0a572cU,
  0x3c955a3abb93b87fU, 0x3cdfe9033df7f896U, 0x3e586a7a3e3bea68U, 0x3e29bcdf3e178bdaU,
  0xbcc8cd81bccfbd8fU, 0x3c98ebbdbdf86883U, 0x3d9b26f43ce3713dU, 0xbe35cffb3e0f0058U,
  0x3e177bdc3e1681baU, 0x3d23bd623c242993U, 0x3e759ab3bc734574U, 0xbd04608fbd2fdc6cU,
  0x3dc7feef3d816401U, 0xbe09d9e9be271d74U, 0x3daf99b3bdf49159U, 0x3c4c10ecbdc1cf62U,
  0x3d71d020bd007c28U, 0xbdbc90a93dbca3eeU, 0xbe126d003e4d7facU, 0x3db2ccacbb90ad97U,
  0x3d69bc42be71435fU, 0x3d2d5bbb3ebd2911U, 0xbe303783bd5bbe35U, 0xbe597799be747470U,
  0x3e07362f3dac60b3U, 0x3e403bb73e66af51U, 0x3e19dc083da13a90U, 0x3e83fddd3e34a57fU,
  0x3c27d6dc3e879dffU, 0x3de04a5c3d1b24b4U, 0xbc9039a1be4b2b2cU, 0x3e63b8ccbcfc1defU,
  0x3d6603523d28c054U, 0xbd81a03abccd672dU, 0x3df120fc3beef757U, 0x3e1cfb8e3d341b38U,
  0x3e85d809be7b4e74U, 0xbe010f323d0070e9U, 0xbd3af15a3ed5348fU, 0x3e207ba63d5726d9U,
  0x3d87acae3d942983U, 0xbd789354bd45b2a8U, 0x3d400ca23e62cea1U, 0xbec6b605bb913612U,
  0xbc31ea25be1e9adfU, 0x3d6f1862be3c9491U, 0x3e9e94993dacc7c3U, 0x3d06f9de3ead4e4bU,
  0xbd130cab3d98de9eU, 0x3e744c493eaa1f8dU, 0xbea2094ebdeb9699U, 0x3d8f7ee03ca21850U,
  0xbf1a1f5a3caca1a3U, 0x3c8e1ea53d0dbce3U, 0xbea5ba06bd840476U, 0x3dab3261becff6a2U,
  0x3e1cc4813e04c4fbU, 0x3e10d0823e368c0bU, 0xbe1fa11fbe761e66U, 0x3e4befb43d359b7aU,
  0xbdcb425a3e81581aU, 0xbe7935233dca50b4U, 0xbe7da951bddddfa4U, 0x3e0aed98be300803U,
  0x3d013559be13244cU, 0xbe187f3abd9e3be6U, 0x3e5258183e62f36dU, 0x3e8cfb8c3e128877U,
  0xbe9131193e4e5a03U, 0x3e3cdc97bd1725b2U, 0x3e96a5a1bd5caa34U, 0xbe17b896bde5c0c2U,
  0xba9f07543e3db1d8U, 0x3db766173d90bb68U, 0x3d9174f6bc75d1ffU, 0x3e06bb553e18ee6fU,
  0xbc66dfc33904ae7cU, 0xbdf1e95e3e386379U, 0xbcc898f6bd069098U, 0x3e05c7253c45099fU,
  0x3d9f84303d19d19fU, 0x3e36eda13cdd9269U, 0xbdb1f40d3d0c40f8U, 0x3d3149e0bd8aa8ccU,
  0xbdc403c23cef6d08U, 0x3e2d1b70bce45cafU, 0xbe1d7e813cbc2b33U, 0xbd81939d3d9dbc28U,
  0x3dae25c6be3784eeU, 0x3d05b3bfbc9ea0b0U, 0xbedc1993bb8d3867U, 0x3bdeeb513c3321bbU,
  0x3d19bcae3dda1a73U, 0x3de1afe33e41af40U, 0x3c058be7bf180408U, 0xbe05d40cbb929a57U,
  0xbce8a5a4bd520a4dU, 0x3d076a843d750d1cU, 0x3d3e113e3d2bf395U, 0xbce3d01bbcf40542U,
  0x3cdf80e8bda299b7U, 0x3da912023a7816d9U, 0x3d309cc8bd03ccf7U, 0xbb54c4493c868e93U,
  0xbd7c7f81bcb9680bU, 0x3d8e0c4b3d1099aeU, 0x3e010fd23bb880cfU, 0xbe84c386bd9acb66U,
  0xbdf03730be46b8a6U, 0xbdd0e64e3b34cf14U, 0x3d0f4d5fbc3ed447U, 0xbb9eff793c4d53c9U,
  0xbbc7658f3cb61a22U, 0xbd85bc2e3b354d71U, 0x3e80f64d3d3bc7b6U, 0xbd004ab93cfc3c98U,
  0xbdf49b9cbcd2eaf2U, 0xbe4350603d23cb4aU, 0x3b6864cb3e0047f8U, 0xbd89ab3b3cab7012U,
  0x3f4609e7bcfe28c3U, 0x3df67f46bcb9c071U, 0xbe283f2bbd059c5dU, 0x3e00a62a3e3a4bdeU,
  0xbc893f98bd8a8cf9U, 0xbee411b03d020b60U, 0xbe26c0d23dd16b64U, 0x3e21d2bbbe1374c8U,
  0xbd340dafbd871a1dU, 0xbe00b5f8bc95eea4U, 0xbefe8591bf34c5daU, 0x3df406e63d1a17ccU,
  0x3e426258bdb4ed33U, 0xbdd0bdc4bd6deed8U, 0x3d528a45b947609cU, 0x3b8bc739bd1f7ecfU,
  0xbdbae8003db9d096U, 0x3d04bec43d8e0db1U, 0x3e08155bbeccb54eU, 0x3d62ceb138b85091U,
  0x3d8ff542bc8bc25aU, 0x3d0cb9e93d7062f6U, 0x3cf5172f3d276433U, 0xbda457243ce49ca1U,
  0xbe0add4f3e2b3e5aU, 0x3d20832cbeb0025aU, 0xbb549edd3dc4f5d8U, 0x3dc861863c498cb9U,
  0xbd08b1ccbe1d227dU, 0xbdfe7cddbdbf16d9U, 0x3d2af4303e0f6274U, 0x3d7b5433bcc8cb3bU,
  0x3d27afcbbd990f4fU, 0xbb5a78c5bb0dd4f4U, 0x3c7990163d868fb3U, 0xbd0ae242be1eb52bU,
  0x3da43d45bcb400dcU, 0xbeb325d53cbfce19U, 0xbd5813d0bdd53d41U, 0xbba4e681be03e9f4U,
  0xba461e9a3c5e1d34U, 0xbceb10363d8448a6U, 0x3e569cf9be51f840U, 0x3ed31905be9714eeU,
  0x3dc0c4523e05ebbaU, 0xbe5c13193db20ad1U, 0x3e8f1babbec06efbU, 0x3dbdf6303c6360e1U,
  0xbdd651423c0bdf1cU, 0xbe2935f6be70e9c8U, 0x3e9cdeb1bd9c2472U, 0xbec551da3d21313dU,
  0xbcb806dabed9a376U, 0x3b86c2f93daccaeeU, 0x3dd141e43cf12802U, 0x3e09b3b6be43bf1dU,
  0x3dcb959fbd6683e5U, 0xbd855124bd3b1b83U, 0xbf31f464be822ef3U, 0x3e48f2d3bdeac836U,
  0x3dcb8b52bda08fb4U, 0xbd285ad53d818460U, 0x3e37ec713e823b83U, 0x3e6c63e3bda4c6a9U,
  0x3de158c43e10f2e1U, 0x3e6750c43e1b00bdU, 0xbd88c1a53e0d9e76U, 0x3e5d8f233e6988e9U,
  0x3e424884bd4f336bU, 0xbdb820b93b2ca912U, 0xbe5dae39be2b0469U, 0xbd8840da3dcfbf5eU,
  0x3e6d5f92bd2c142bU, 0x3e6cd2353d7f40d7U, 0xbc94a2cc3ea89832U, 0xbd8af1423e96ee02U,
  0xbf2f2a22bdb5c7d0U, 0x3e2d8ec8bcf7eab3U, 0x3da06c36bd953004U, 0xbdf815a1bd23a056U,
  0x3d974c46bea71780U, 0x3e02426abd4a32e3U, 0xbe3c58dd3dcd9adcU, 0x3d911488be6d2710U,
  0x3b2a0a16be8e8c8dU, 0x3ddd9996be03f749U, 0x3d4c22693d6db31cU, 0x3d767c0e3e84c845U,
  0x3e329959bd0ab864U, 0x3caffe3b3ea00855U, 0x3e07d288bea50883U, 0xbe50f457be73673aU,
  0xbed16668bb504864U, 0xbd7cb859be6a0a16U, 0x3e18d937be68d4b8U, 0xbe5046d53e3a3305U,
  0xbe5c730e3eab3c24U, 0xbe24b669bd906b6cU, 0xbdaa4c753db3204aU, 0xbe343fdf3ea8bfe9U,
  0x3d1accd7bed5cc0aU, 0x3ea7819bbe0c9590U, 0xbcff1f9fbc799807U, 0x3ca302403e18a0f4U,
  0x3eb51e0fbec3d3f2U, 0xbdef5b4fbd8d6fe7U, 0x3dabf7fb3d927be2U, 0xbe009a0a3e572050U,
  0xbd35dbfb3d95c865U, 0x3c862722bc656469U, 0x3e3f9feabe0226ebU, 0xbd8f4d9cbc0fe230U,
  0x3b2b99653ed46125U, 0x3d0add503e642ac3U, 0x3da4ed4a3e2f7f3fU, 0xbe0843883def0660U,
  0x3e0d00a83e220dc3U, 0xbdb72b083dbdd9dcU, 0xbd0dbbfb3d7bde02U, 0x3e0f1ccbbc8a0811U,
  0x3e89f6ef3b11d5b1U, 0x3d8c6532beb1d35eU, 0xbd2e2ecbbdb9f083U, 0x3dd133b9be3d20daU,
  0xbdae3831bd0b2b95U, 0x3b7fa5a8be30ba38U, 0xbef284d5bb86479eU, 0xbe0b78bc3dfce3a1U,
  0xbd3bc10a3da9e311U, 0x3ca6f3d43e30e62cU, 0xbd44bc1bbdb01203U, 0xbd1388c2bdfe1a24U,
  0xbe7498adbe1efdc7U, 0x3d4611623ec063f7U, 0xbe07c678bd89fe21U, 0x3d9d8afcbe3f62cdU,
  0x3bb081d1bd890bd6U, 0xbeb5ae50bd33c4c8U, 0xbe4fa99d3e2670d9U, 0x3e3881d8bdffc622U,
  0xbcaf93213d6d4ec1U, 0xbe5793e5be4ee246U, 0x3ce397dabc4d07aeU, 0x3e17f2f7bef3c435U,
  0x3d73bc08bc5d2dd6U, 0xbdf7f8993d104993U, 0x3dc74a98be5543a8U, 0xbc52b3bcbe17319eU,
  0xbe39532c3cd843a8U, 0xbd85d1d8be8da107U, 0xbe85d1253d5c4795U, 0xbe456f8e3d614db0U,
  0x3caa80533e4ecc23U, 0x3dcaea4b3d9d9adcU, 0x3d9bb1533e2a28ffU, 0x3daf0dcbbe01ad9bU,
  0x3d9d63e93df1afb4U, 0x3d6b74a13d856c81U, 0xbe185317bd742d74U, 0xbcf5d5313ccc0f3fU,
  0xbceaac11be01ad4aU, 0x3d2efe373dd76fa9U, 0x3c56aac9bc547a20U, 0x3d261fd53d0f4ab5U,
  0xbd7a364a3c95bfb8U, 0x3b68b866bcd69c87U, 0xbdab98adbc96c443U, 0x3d1f2a9ebbc8307aU,
  0xbc10e7a4bd8cb53eU, 0xbd06e9e73cd7b104U, 0xbcd1c324bd913e94U, 0x3e0e2f813cb7d366U,
  0xbe301a70bec017cbU, 0xbe8be4713d4fa70dU, 0x3daaa986ba2d8ab0U, 0x3dc5e087bd570de1U,
  0x3d510be73d85d5c3U, 0x3e791325bd6af431U, 0x3de16576be67be83U, 0xbd9936e23e5d30bcU,
  0xbc8e10cebe347f41U, 0x3c8be64cbe4a7722U, 0x3b11592b3c2630bdU, 0x3db2d02a3d12e829U,
  0xbe158d913d6812fbU, 0x3dddbd993e317304U, 0xbd9d7543be0058a5U, 0xbd968cb6be688dd1U,
  0x3aef98bf3e6a7383U, 0x3d5c07a7bc8840adU, 0x3d3c5cf0bb4f4eb6U, 0xbe45f1c33c4c0a3eU,
  0x3ccc624fbcf7b591U, 0x3d093d013d8a6422U, 0xbe706327bd5a608cU, 0xbdd993c03e002d8fU,
  0xbd67d5193d3a91d1U, 0x3da072f73d4f7596U, 0x3e83073c3eb251adU, 0x3e82d702bd5f4dd0U,
  0x3d7ce526be5d0659U, 0xbe1eba4bbe073494U, 0x3db7a53b3d810316U, 0x3e9f50d53cd6bd37U,
  0xbbadf5e73db56109U, 0x3cff19ec3e236ce6U, 0x3c6df9b3bdb7de82U, 0xbe9281d1bc8865fbU,
  0xbdd010233e249ac2U, 0x3ceba162bcaa6818U, 0xbe49e0ec3d2b6d03U, 0x3df6889c3e27d966U,
  0xbd9ca0373d8534ccU, 0xbe9bce023cf92c33U, 0xbc95d9a5bcc4c87bU, 0xbe19a35bbc803810U,
  0xbc9761503e04268eU, 0xbe62087dbc27ddd5U, 0x3e73b81e3c655ea1U, 0x3cf072b9bc81c3baU,
  0xbaa685bdbcf5a5e0U, 0x3a4a1ac03dddcc7aU, 0xbdbfaf743d950bdcU, 0x3d6f5146bdb96ec5U,
  0xbdd44b8ebd906b1fU, 0xbc2fc2663d7f9342U, 0x3d9344083e048c4cU, 0xbd9ed712be01833fU,
  0x3e6213973e1dcf50U, 0xbd8780dfbe9dd63dU, 0x3ce3d996bd1b8ab3U, 0x3e32c33abc5d509eU,
  0xbdb0de2f3df7f48aU, 0xbceb8b74bdb36b50U, 0xbd355a443d671379U, 0xbe35813c3ca5fa5fU,
  0xbcbae9713b6ef8ceU, 0xbd8cb9783e07c124U, 0xbd1de356bd8eb4eeU, 0x3e244aaabd168652U,
  0xbd49159e3d8f8427U, 0x3e3231303ee18c91U, 0x3db3338cbe4130c4U, 0xbd093074bcb9c64fU,
  0xbde3eea1bd9b9b18U, 0x3deb9007bc3c6e83U, 0x3d0ccc31bcfc1646U, 0xbc48d9c83dc59413U,
  0x3dc21f89bc35ca62U, 0xbd0c229e3e244f5dU, 0x3d0d0f18bce310c2U, 0x3dc2309c3ddb3fcaU,
  0x3de3dd603d53bf1bU, 0xbcd9df533c1a6252U, 0x3d91b7e13e6edc13U, 0x3d1b126dbdb275f2U,
  0xbd661e743df6e567U, 0x3d88338ebd5092b1U, 0x3dc8a8f3bd6025f5U, 0xbe247fa13e153d3eU,
  0x3c2e0b89bcbaff56U, 0x3da586463d082d82U, 0x3d8862a3be86d288U, 0xbe1f3c4c3e1ce6edU,
  0x3c568068bac1ccb4U, 0xbcb23fd73c8862d2U, 0xbdc32cadbcecf8ddU, 0xbe2d16e7bded860fU,
  0x3c45bb7bbd6a9ea6U, 0xbc43a0ea3e120bb1U, 0xbd01349dbc9d42eaU, 0xbda058af3d38adacU,
  0x3d149144be9002efU, 0x3da40499b9f5266dU, 0xbe7259353e188fceU, 0xbc9667eabdab4e34U,
  0x3d0f2a193d9cd78eU, 0x3d27b3683ebfb7f3U, 0xbdc646d5bc8839e6U, 0x3d93c7e9bcfc2d99U,
  0xbea58836bd0c115cU, 0x3c4bfbec3e5ae78aU, 0xbe7bdab5bc6a2092U, 0x3cd293213e4865adU,
  0xbe509682bda2bce3U, 0x3db26a51be2150abU, 0xbcdd0358be30b1f3U, 0xbe8b32a6bd419ee0U,
  0xbd7c5d023d9e192cU, 0xbdb18784bd82462eU, 0xbe2c942d3c4d6753U, 0x3eb02feb3d3f2d6bU,
  0x3dfa1ef63d7dac81U, 0xbdf7135bbe2faccdU, 0xbe03406cbd769a10U, 0xbdd79dc1be3e4c0eU,
  0x3ba9bf2d3e35ea78U, 0xbd92eb63bdeb2430U, 0xbcee689b3e1f4d06U, 0x3ddc2c5c3e12842aU,
  0x3bd6c01fbdaa8f06U, 0x3da1fa3abe4ebc97U, 0xbe0d668c3e3fbfa8U, 0xbd0a86513e1d4fceU,
  0xbb08964cbd1aa4c2U, 0xbeaad407bdbe741eU, 0xbe874f85be2c4677U, 0xbd06e6f03e41193cU,
  0x3e1580f23d9c9642U, 0xbea9dde9be0a6473U, 0x3cb734c3bdc66bd7U, 0x3e0e5ed13c7c28c9U,
  0xbc35aef3bd88b1b4U, 0x3e812c88bc0d497dU, 0x3d0dfcfb3d77e6e4U, 0x3dee4810be7c109cU,
  0x3d63d8e6bec4d561U, 0x3e4c3540bd539caeU, 0x3e32e5dbbd0e9feaU, 0x3d7fae50bdffa9f6U,
  0xbcd63c3e3d29bd9aU, 0x3dc39eac3d5869f2U, 0x3dc11da9be1564ddU, 0x3e05e527be882bbbU,
  0x3a8b1461bc6a3e20U, 0x3ea2aba13c8d86ffU, 0x3edc89a53e92a328U, 0xbe0ad098beca55c4U,
  0xbd83edd3be527919U, 0x3e622d14bd287c57U, 0xbe2457323d2b72edU, 0xbda8cb73bcf57744U,
  0x3c2f0a4cbe9fc156U, 0xbd7cadc63be4a1d6U, 0x3d6c4cb13da1678bU, 0xbd394fd5bdde9e2cU,
  0xbdda0e0e3d80779bU, 0xbe1a2e453dea5618U, 0xbe4ecf49bdd612f7U, 0xbd6581653e160370U,
  0x3d18375bbcf883bfU, 0xbe2a4906bc839b92U, 0x3dd37dc3be923dd5U, 0x3d06f3d43e23f811U,
  0x3e6a8873bd49be32U, 0xbe4549013dba3a24U, 0x3e1e0670bea1ae25U, 0x3dba6a233e4481d4U,
  0xbdceb9b7bda272ffU, 0xbdd1700cbe201744U, 0xbeb4a9f9bc4849b0U, 0xbe3d37f73df000c0U,
  0x3d5f2d463e43fdc8U, 0x3d3686703e61c1f1U, 0x3c204602bd98c8f5U, 0xbdb5619ebd93637fU,
  0xbe618626be04ef3aU, 0xbd9153413d870191U, 0x3d2ea145bd7a7ad2U, 0xbcc821babbc7aa77U,
  0xbf138d713c0f30b5U, 0xbd2c8bdbbe83b8b5U, 0xbe117c61be85e9daU, 0x3d3c1a51be8575a7U,
  0xbe476a99bb19bc86U, 0x3dddd5ab3ce4f88dU, 0xbd3404a2be929969U, 0x3e0e92a43e328beaU,
  0x3c102d7bbc1cd067U, 0x3e6ec404bc3b1d08U, 0x3d05cdbcbdb18125U, 0x3e147dc1bbfd7db1U,
  0x3e39409f3c0cf5a9U, 0x3d9c72d3bdaf99ceU, 0x3e203044bdf659e5U, 0xbe506db33c37c56eU,
  0xbd86f321bee426d1U, 0xbe20e3e3bc9d11afU, 0xbd8394d7be66d7a9U, 0xbe66519c3d1e71c8U,
  0x3d9ca618be6e745eU, 0xbe36335a3e7287bdU, 0x3d8822ab3e255c4aU, 0x3e4c508abdd9f537U,
  0x3cf11567bd83be85U, 0xbdee69c53dc95fd7U, 0xbe302383bdd8c60dU, 0x3e228fcbbd58948bU,
  0x3ea366f53d5371a1U, 0x3dd844073ce1dcc5U, 0xbd6338a33dbf2c0fU, 0x3df2afb03e0f2683U,
  0x3d8c8ec1be8c7172U, 0xbe990dc43ca9d39bU, 0xbe712b57bdc36d15U, 0x3e5fe73dbda0aa24U,
  0xbe6641ecbe570b33U, 0xbe08c4debd5f60b3U, 0xbe5448afbd99d81cU, 0x3cda4c093be4451dU,
  0x3d9a7b323eb6e608U, 0xbccd2d74bccd216cU, 0xbd955aa53e06a215U, 0xbe025bb5bd1ed323U,
  0x3e161ac43df94058U, 0x3ceb238a3d1766ceU, 0xbd5836a5bd95046eU, 0x3e055cb43e46e85cU,
  0xbe3209773df94f97U, 0x3e6c04433d24a02dU, 0x3e2f26953d1e3c06U, 0xbda3e8e4be87cdc6U,
  0xbe03c7c8bdc1b0bcU, 0xbd0ce6393d4772a8U, 0xbd276de83db7828eU, 0xbd83098dbd75b7fdU,
  0x3ddd6ae9be8c8375U, 0xbdcad25dbdb9ff53U, 0x3e9c11423d3409dcU, 0x3d0cd4f5be8052abU,
  0xbcca08b7be5cc9ccU, 0x3e479aa5bdb440d0U, 0x3df929473c32655dU, 0xbd8e1b9f3d53429fU,
  0xbcf00efd3e05b635U, 0xbb1ed4893dee93a6U, 0xbe380cf43e4bfb3fU, 0x3ddb55df3c68b124U,
  0xbe237bb43cacc35bU, 0x3d574f753e3cf90aU, 0x3e91eea23cca727cU, 0x3e66f3523d6d734cU,
  0xbe0a3cb53e137326U, 0xbd888b07be18ebf6U, 0xbea776913d8fb81cU, 0x3d6e8d123d95d63aU,
  0xbe6532e73de11162U, 0x3e08cd893d0a5f6eU, 0x3dc2ca533dd23025U, 0x3dfbd3f53b3c3badU,
  0x3eb04c80be1c4dcfU, 0x3d4631563d8af1d5U, 0xbe5cafcebdbb7536U, 0x3da83ed3bd0e0b4fU,
  0x3db12299bd54f6c8U, 0xbe3d868f3b73b7e5U, 0xbc3f25503e3a2392U, 0xbd6b714c3d284c81U,
  0xbc949b49be041926U, 0xbd1a7408bd131457U, 0x3d59eb18bda01b6aU, 0xbdaf3dc53d96c4a8U,
  0x3d5db423bd81bef8U, 0x3d1cfd133e26caa4U, 0x3e388994be8eec9fU, 0xbcd88eaf3d917226U,
  0x3d891f85bdc852d8U, 0xbd9fbd59bd866a1fU, 0x3e1aa29ebc79cbbdU, 0xbe216f343d89048fU,
  0xbd8ef62d3cf88768U, 0xbe58a03abda927c9U, 0x3dc7f5483d16ce2dU, 0x3dee1f623d9fff4cU,
  0x3b39647ebbb3a67aU, 0xbcba307bbd2acc00U, 0x3ea597a6bd877f24U, 0xbba94b1a3e9479d6U,
  0xbe018b203e143c58U, 0xbcffaf2f3e370eebU, 0xbc6d7e393d0d8361U, 0x3dfa3fba3d407320U,
  0xbe8a97fb3e1db79cU, 0x3e1cbe403d95b2efU, 0x3c9714923e93c2e3U, 0xbe06693d3d660981U,
  0x3de0a6fabe283f40U, 0xbe6b8058be7ab80bU, 0xbd92885b3cc46730U, 0xbd76a9a8bd76e066U,
  0x3e4b3226bdf1677aU, 0xbe90619cbd0202fdU, 0xbe88e5033cb494c6U, 0xbdf72b9abd28a63aU,
  0x3e4652433ca5e793U, 0x3e271fd4bd09fa8dU, 0x3c0d30783df6ffa3U, 0xbd25cd2cbc89f8d4U,
  0x3cdb8f893e05ba73U, 0x3dce3eb6be553f4dU, 0x3e625197bd316450U, 0xbe0c57843e52da56U,
  0xbdec94c73daa5d2bU, 0xbe316a163e75ea93U, 0xbec878853e4ab866U, 0x3d8d68c6bdba9b88U,
  0x3e1f730fbe6349cdU, 0xbe0ee616bded5693U, 0xbe3dfb8bbea71582U, 0xbd4e3528bc8a21feU,
  0xbe7480fa3db7301fU, 0xbba5ccbcbe453a87U, 0xbcc09f113dc56a0dU, 0xbe86d2123b9c6e67U,
  0x3e6355f13e47ad01U, 0x3def0454bd649c57U, 0x3de9faeabd2a7c50U, 0xbe9e2e25bd76d428U,
  0xbe4432043c5b9f43U, 0xbc83a9ee3e15ad52U, 0x3cd6b294bd9ed789U, 0x3d3ec8d4bdc5ffd8U,
  0x3c2136403e4816e7U, 0x3d89d2523c1d0831U, 0x3d2b67723dc87c0eU, 0x3c755dd3be613f75U,
  0xbebbd8fc3d97ecd1U, 0x3d19b4443d9f1440U, 0x3dec0564bf0e1964U, 0xbe59df653d4faa06U,
  0x3bd874acbe20a7d0U, 0x3d43f923bdaa29b5U, 0xbc792d323d119b95U, 0xbd79c3bf3d1b2ee1U,
  0x3e3b567fbe3885ebU, 0xbd9dd0c23bb74aadU, 0x3d7070833d6cd193U, 0x3c2c23ad3c87feecU,
  0x3e97cb5e3d489c60U, 0xbe5a6ffabe0ffb00U, 0xbd3f40313dcc26d0U, 0x3d610857bd8be978U,
  0xbe80ec7dbdc67a0aU, 0x3e0a6a6d3de0b69dU, 0x3e019d4c3d2ad510U, 0x3daab3a83cbe0cedU,
  0xbde3e2653d8099ccU, 0xbe3fc6623dcb5712U, 0x3bfaa3b03c217f46U, 0xbd061e08bd381a3aU,
  0xbca9dc503d7d58d5U, 0x3b979e8dbd95bf95U, 0xbd080a03bde055f9U, 0x3e14d8e43dd28a2aU,
  0x3c170202be47ae85U, 0x3d05db16be32b6c0U, 0xbc8587f7be4f840dU, 0xbd9f2d153db628e8U,
  0xbc618b8e3de901b3U, 0x3df78a523d9633dcU, 0x3c1537abbc9f85e7U, 0x3cc0b6a9be2d371bU,
  0x3e3256f43e0ee954U, 0x3d0bfa00bd71f8aaU, 0x3d0ff461bcdfdb24U, 0x3da87bcbbe8519f2U,
  0xbc770643bd5cbcddU, 0x3cb2cd1a3dbd5c17U, 0x3c58b9ccbda61f57U, 0xbd7fe5d93d8e2057U,
  0xbdae06943da9e847U, 0xbe0762dcbd746ef5U, 0xbcf9a9f3be00de05U, 0xbdf401243d8892f1U,
  0xbe82379b3d26fa10U, 0xbde9053b3d7283e6U, 0x3d318d463da4c0eeU, 0xbcacc0c8bd19157bU,
  0x3ce9a0f2bd9643cbU, 0x3d085ed43e3a58deU, 0x3d177e1dbc96666eU, 0xbe0075753e196a7cU,
  0x3e42d2143baca6a3U, 0x3cdd6259bdc78783U, 0x3deb4ee53ddf0d5eU, 0x3e4b2ad7bc65c5c6U,
  0xbcb899d73d5beda6U, 0xbd3b2871bdd54a1cU, 0xbd52cc0f3d892e64U, 0xbccdef323d0ae6fcU,
  0x3d3f8edd3af32291U, 0x3c03ee623e44e19dU, 0xbba1d2cb3ddde4c1U, 0xbe06944a3b388aefU,
  0xbb635d923ea8a437U, 0x3d0251b63d787576U, 0x3ddc8996bd82b21fU, 0x3e00bfec3c7211dcU,
  0x3d74efc33e03c981U, 0xbd7b20543d214941U, 0x3d22c18fbca65450U, 0xbca802a13e0ba896U,
  0x3d2d82ba3d964810U, 0x3d07093f3dccfb80U, 0x3d0fbf4b3dc0a1d7U, 0xbddcd5babc400981U,
  0x3da3de0c3d8ef362U, 0xbe7470783d1c06a6U, 0x3bc0f2673ddc7703U, 0x3db7ababbbb3b98aU,
  0xbd6588823b687738U, 0x3c637222bd9ee862U, 0x3dbff6993d4bdbefU, 0x3d6170103de88e2bU,
  0x3b0283e53ec416c1U, 0xbdd505efbe9834abU, 0x3e27c4b7be97dfcdU, 0xbe54c2fa3e46c46bU,
  0x3e81c6b33e377d02U, 0xbe075a52bde6862eU, 0xbd7a79cb3ce9622aU, 0xbcf6a4e1bdfaa08fU,
  0x3e22ccf03c609bdcU, 0xbe96e424bd43d589U, 0xbc8b5779be2bfc83U, 0xbefadd633dc991b8U,
  0xbe33a6883c86ed54U, 0x3e25ea533d8e6d3aU, 0xbc22f19abc95167eU, 0xbd96222b3d91d4beU,
  0xbc95f1523da9d57cU, 0x3e2141933e04a87cU, 0xbe1f8945bca2e806U, 0x3e41be59bd0cc5beU,
  0x3e80f2e4bd68028cU, 0x3e2914e8be42386dU, 0x3e85097ebd96215eU, 0xbd602c983e8a6bdbU,
  0x3ec263493dac8353U, 0xbd913f25badf09e7U, 0xbde05cebbce285bcU, 0xbe657bf5bd7b6263U,
  0x3e39d6343e067017U, 0xbe4f6184bc863cf6U, 0xbe7578c33e6e6405U, 0x3e527864bcc1e028U,
  0x3dae73c93d016198U, 0x3e38f64f3d8efdb5U, 0xbea263e1bc493fc6U, 0x3e0da5ff3d05411eU,
  0x3da8324ebec2d1bdU, 0x3e8ba184bd213387U, 0xbd5f84bebd589a7fU, 0x3d7c1ea2be35ac74U,
  0x3e0cbccdbc63ca89U, 0xbca8328bbe961ab2U, 0x3dcba219bd05a0ccU, 0x3bf43d133e4c0023U,
  0x3d3133a8bcc8815fU, 0xbdaa75453dc5bf07U, 0x3d94e18d3d9ca5c2U, 0xbe36e077be2a8f28U,
  0xbed0f5d13dfd5e9aU, 0x3d678b54bc96e9aaU, 0x3e9194b6bd0225aeU, 0xbe468c003dcfb25eU,
  0xbead20cd3cd839ebU, 0xbe0661e13da777e0U, 0x3d04c2773da9a378U, 0x3d9ac6ddbdb048a5U,
  0x3ddced0ebc69baf0U, 0xbe981c53bcedb4dbU, 0xbdb5f542bd82a374U, 0x3e05fb743d9579cbU,
  0x3e347a99be1d0e57U, 0xbde00c44bcd0f6c6U, 0xbd985193bdc5f3b2U, 0xbcf533503e818030U,
  0x3e0959993ded6f97U, 0xbbc2dceb3dd91533U, 0xbc6ef63bbe025864U, 0x3ddad8c8bb3dc9e6U,
  0xbddacf893cf950dfU, 0xbe27870cbc98fd32U, 0xbb4c2264bd91f2d0U, 0x3dea6ffebe0124a4U,
  0x3d8f49293ccd1eedU, 0xbd0eec7dbde453e4U, 0xbd4d3b83be374bd6U, 0x3d02aac63bed8cbfU,
  0x3db82142bd41f6c0U, 0xbc8b0c6ebdffcc58U, 0xbd8343afbd7e84c5U, 0x3dbe98ce3cf7680cU,
  0x3cfef120be8cd53eU, 0xbce001f03da3b8faU, 0x3d444ecabdb4c2e4U, 0x3d7e5fadbc829264U,
  0xbc40bca3baf1340eU, 0x3e4eb1493e03abe9U, 0x3e09aefdbe81657dU, 0xbd636dcabe1cbcecU,
  0xbd28ef923d0a193cU, 0x3cd30e18bc53c418U, 0xbd3d7ba2be1e314fU, 0x3d9b36b13de1aeedU,
  0x3d6d40e0be38f4caU, 0xbe0808703d88f4e3U, 0x3e90d7ba3cc67f21U, 0x3e5e1a743d00f835U,
  0x3d3899e33dd376a4U, 0x3e718df03d40525fU, 0x3c2c26fb3d88250cU, 0xbd85b773bd9ff9b7U,
  0xbe8b7f83be34b2bcU, 0xbe165755bd3a0511U, 0xbde66d16bd777790U, 0xbd88f3ccbdac8aedU,
  0x3d09d5f9bc930d6aU, 0xbe377aa13daafc9aU, 0xbe03aa483ddb2aa7U, 0x3dfcc8d93dc8fc49U,
  0x3d8e901c3d43078eU, 0x3e2404bc3d65b92dU, 0xbe101d133e08d8e2U, 0x3e8b94723e5c319eU,
  0x3e79f39c3d639652U, 0x3e184d3c3e93b3f4U, 0x3d9fac893d4c3a05U, 0xbdaba3b5be5f8149U,
  0x3cd2c6c6bd8a23eaU, 0x3da20efcbc295794U, 0x3dcb48ce3e17a8f7U, 0xbdc3ba663cfd80afU,
  0xbe9a19463c8ef50bU, 0xbda6cc32bdcb1e49U, 0xbb3f7b443dcfd44fU, 0x3d42a0c5bd47d2d1U,
  0x3c266593bc9cc60aU, 0xbda55c3e3cfa2decU, 0xbd69dc7a3e31c324U, 0x3d6312e23ec8cb32U,
  0xbcfc3c73bd0da7d3U, 0x3d267bc23c7e435eU, 0xba7367f0be013097U, 0xbe1096013e1ba0cfU,
  0xbe533049be9bc998U, 0xbeaacc08be2dfec9U, 0xbd773ff13e412120U, 0x3df26a21bd8a81e7U,
  0x3d0beddabddbd917U, 0x3d73af323d9defb8U, 0xbe0ed3263e901c38U, 0xbe692f64bd7608feU,
  0x3e5bfd7fbda78e42U, 0xbce8410ebdb16dadU, 0xbe17ae0cbead7726U, 0xbe8159973c6e8a58U,
  0x3d2331d83dfa0cfdU, 0xbe0602eb3dc76d70U, 0xbe0bbabebe5953a2U, 0xbe60fbf8bc8ee0dbU,
  0xbe1e2551be574450U, 0x3e16ef173d908756U, 0x3d105ca0bd713106U, 0x3d96a245bbe49fb4U,
  0x3cc40a18bd33758fU, 0xbe2c94ecbdccc7c7U, 0xbe20b4debcc0fbdcU, 0xbd7fdf2a3e1050b9U,
  0x3e20c68e3cbf2492U, 0xbe1006f6be0f8b74U, 0x3d6275443e6183d1U, 0xbd65d6833c3c6b9cU,
  0x3db2eec2be031cf5U, 0xbe09dcf43df51fddU, 0x3da4c8483e5e6861U, 0xbde21ef83e201229U,
  0x3ed0a8333d159fe5U, 0x3d2a39a9be57e274U, 0x3e05eb36bdf304d3U, 0x3e2eb453bda9f74fU,
  0x3dd0674c3d315ab2U, 0x3e3ca3253cd1187aU, 0xbe3d83a13c8c5df5U, 0xbe7a6d0f3e5c7941U,
  0xba8b3b56bcc07a3aU, 0x3d0b826b3eaa8bd4U, 0x3e0b2bcdbd42f64dU, 0x3de53c813de92353U,
  0x3df69a1fbdb02dc8U, 0x3e89532ebd9d2d7cU, 0x3e2788593c82faf9U, 0x3e1370dcbd14a0dcU,
  0x3da6df79be33378eU, 0x3d13c3d63eb23390U, 0x3da091f6bd41666eU, 0xbea0eabf3ca9bd84U,
  0xbeca18cdbe37cef0U, 0x3d9863dbbceed116U, 0x3db3fb3d3dc7453fU, 0xbd1286923c6e3ebcU,
  0x3d82712c3c9856a5U, 0x3c9603e23bb3a16fU, 0xbdd76b54bd6a658bU, 0x3e0df1d93ba297edU,
  0x3ddcf2b7bd8305d5U, 0x3d01aa13bce01d74U, 0xbdac6712be2c7f74U, 0xbdfc08a3be141201U,
  0xbce4bf40bdfd86ebU, 0x3d4ceaeebdbd3db5U, 0x3da783943c7d08a6U, 0x3d28855ebd960526U,
  0xbcf9232e3e13b599U, 0xbd6f373f3d6b61e2U, 0x3d212a3f3d83af86U, 0x3e4ba865bdd6ae42U,
  0xbddc31b73e3895a6U, 0xbc08a7b3bcf9137fU, 0xbd84b8a6bdb30e12U, 0x3e06c7e63d1c2a19U,
  0xbbfa29d83d93f072U, 0x3abac22d3e2493d3U, 0x3d7bb0c8be6fc443U, 0x3db69216bc2bd33aU,
  0xbe6ac3abbc24702bU, 0xbbd0d2c53e2b334aU, 0x3dffe589be8c941eU, 0x3d28a9353d0d1e54U,
  0x3e569e533caf7053U, 0x3ce12f87bdb00ee1U, 0x3d65d3693dea7447U, 0xbd60c45abc6d805eU,
  0xbd8c3a9cbc878103U, 0x3c603d8f3dabc660U, 0xbdbc204d3be0d9ddU, 0x3e0c743ebe0e29fcU,
  0x3d6640b73e507992U, 0x3e07a3aa3e245d72U, 0x3ea17fbf3dd9fcd4U, 0x3d8ed0f43cb652f1U,
  0x3d231c853d8b65c2U, 0x3bd49cd63e329eecU, 0xbc529e623da38204U, 0x3df32da6bcfd8670U,
  0xbdec7c9f3e506710U, 0x3cf8a5ed3dcc3001U, 0xbce9310e3c2352a8U, 0x3c093cd53dd15573U,
  0x3d31db0e3e94f652U, 0x3b2235443ce7f885U, 0xbca854343d620aefU, 0x3d96aae2bbe00050U,
