/**
  ******************************************************************************
  * @file    network_data_params.c
  * @author  AST Embedded Analytics Research Platform
  * @date    Sat Sep 16 16:25:26 2023
  * @brief   AI Tool Automatic Code Generator for Embedded NN computing
  ******************************************************************************
  * Copyright (c) 2023 STMicroelectronics.
  * All rights reserved.
  *
  * This software is licensed under terms that can be found in the LICENSE file
  * in the root directory of this software component.
  * If no LICENSE file comes with this software, it is provided AS-IS.
  ******************************************************************************
  */

#include "network_data_params.h"


/**  Activations Section  ****************************************************/
ai_handle g_network_activations_table[1 + 2] = {
  AI_HANDLE_PTR(AI_MAGIC_MARKER),
  AI_HANDLE_PTR(NULL),
  AI_HANDLE_PTR(AI_MAGIC_MARKER),
};




/**  Weights Section  ********************************************************/
AI_ALIGNED(32)
const ai_u64 s_network_weights_array_u64[4983] = {
  0x813818e00d0ee61aU, 0x1c19b52412d9082fU, 0x26000a01f4ec33e0U, 0x6d92806c909db09U,
  0xc21950c8121eb71dU, 0x7e7fdb2b13d82217U, 0xb6bc1ceadb4c29e6U, 0xf9f8d5bca1bfb3a8U,
  0xefe7eafad00a0e62U, 0x2451677f5f364412U, 0xf7f0a292443e73aU, 0xe4ed05352d2438ddU,
  0x86d2e419e7ef96b9U, 0x81513454170a12e2U, 0x38742fffe874b59bU, 0x4c19a597e64708acU,
  0x54a0949d09126e1fU, 0xb7cf73e8a17f0dafU, 0xee36c2f53febcb13U, 0x1ae9ebcc44bf44e1U,
  0x1581dbf8ef4532b8U, 0xe4c6efddf50bb604U, 0x34dc00f32a3f14cU, 0xf2d1280cd6352ffbU,
  0xeb544e814fe9f2fdU, 0x77debb3cfdbb59c3U, 0x22b520e4947ed6deU, 0xffffd05a00001677U,
  0x417800002eceU, 0x1ef30000597aU, 0x54b70000879aU, 0x32da19041c0cd6caU,
  0xc40d6525bd7fb8adU, 0x4f56cbeff08c4e5U, 0x377f48efcfdafd7fU, 0xed0598b3c8ea676aU,
  0x81ea9c797f0d7fefU, 0x48ecdb24e2e59a49U, 0xf60381816ebf7d66U, 0xeff4e25fdfff19c2U,
  0xfffff5e1fffffeb4U, 0x2500000565U, 0x1864ffffff3cU, 0xd85fffffd25U,
  0xe73b20e37ffcaff9U, 0x94444b1ec47fffe5U, 0xff81f5081bf6e282U, 0x81e5ea0a19edc13fU,
  0x7f3e72fabcc6954dU, 0xff8110feae68f023U, 0x2e5fd7fde021d00U, 0x7ff8ec291ff2d1b6U,
  0x4c3fbf80405577fU, 0xcaee810acff9a8c6U, 0xd24ebebf38113e8U, 0x353aa8fffe00c37fU,
  0xe2ff47f0af4d6d6U, 0xe86102c2948191c3U, 0x304d1dd7f76e50cU, 0x154c7fe8441b11e5U,
  0xfffffe0dfffffe07U, 0x108300001558U, 0x9440000200cU, 0xfffffe720000018cU,
  0x1a2cfffffdc0U, 0x100000850U, 0x25a2ffffffaeU, 0xfffff2f9fffff790U,
  0x19e1aa07efeb133eU, 0x4aeb44f9d344c71bU, 0x3fe5e5d4d0a7df81U, 0x7fa520c94c5ba890U,
  0x14f222ddf3e8b23cU, 0x23e9e0cc7fffdc81U, 0x3b9881f381eef9a4U, 0x5bd975e7dc25bb0aU,
  0x7f81bc818c819e33U, 0x718149814c7f81c9U, 0x30cf38bcfed9813eU, 0x17b581cb3945b8c3U,
  0x2ca6c8eac0e9d800U, 0xfce96ceee1f4020aU, 0x1896cecfe0d8a83dU, 0xe7d630ce0531dc20U,
  0xfee527f31ce6e2ecU, 0xd6c998e3cd55c842U, 0x1d0effffff3dU, 0x1e8c00001344U,
  0x294600001a6aU, 0xffffffab000014f6U, 0x1cb100001b5aU, 0x31200000157U,
  0x3f7000016a6U, 0xffffff1b00002c43U, 0xefeb810b21f91beeU, 0x3eee01701cb0c0dU,
  0x133081212b14afe6U, 0x50a0f5290825cc03U, 0x13dab5ffbe20f005U, 0x70ee2efed7fef18U,
  0xf81f907de26f33aU, 0x216c88a0bfbd816U, 0xf31f6ddae4dc5e7U, 0x7f2b639e2f69c146U,
  0x47cd1caa1404077fU, 0xa17f1b3edee0f11U, 0x88a8667feb47ff06U, 0x209100f2ef0cd2b9U,
  0x52d32881f2f9a901U, 0x7eaef404e9e529f5U, 0x14f57f23fb2815f0U, 0x12fa45c5e68605deU,
  0xd0a2308df11127fU, 0x12a1d2f833fb29cbU, 0x35320cac1601180aU, 0xcedd0127087fd947U,
  0x23264c1fe5037f2aU, 0x38c6866105ebca08U, 0x3cfeecef7fff10fbU, 0x40df005a603fb1cU,
  0xfb3074e13c7fbefdU, 0x2916e9e735f3002bU, 0x37ef03e7cd3ad4f9U, 0x15e408d87f17fa91U,
  0x40f0fc1cd5cb2a1bU, 0x11ed1f0781ebda4fU, 0x7f13e99d7bfa22feU, 0x1a07df11fae776ceU,
  0x18aa2c41684727f8U, 0x1ad75836e1485081U, 0x7c26b800d310e9dcU, 0xee1df4437f4dbb01U,
  0x22de166b15002a1cU, 0x7181de0641e21501U, 0xeec48108fd47f20aU, 0xf24fad0a15370142U,
  0xbe32d615574adf14U, 0xe7127ff1f44113fdU, 0x8f256bf50fba5d62U, 0x5781440bbe36b17bU,
  0xe80ef224b1301cfdU, 0xe9d61c097fe6d5baU, 0xfbe4e30c142df30dU, 0xd20512d5ff81ec08U,
  0x3c0ffbffcb22e112U, 0x127ffed13bc8f3fdU, 0x92f6f918461b2e3aU, 0x7fa1d7f806022bfbU,
  0xec1be2fe0eb14beU, 0xa425af7f089156fbU, 0xe3fd29789d0bbb03U, 0x6f72f0c501c8134U,
  0x372f10c65cea0bf1U, 0x2162e32d7ffb0cecU, 0x96afec903e00b52bU, 0x5f1ce0fa79356381U,
  0x7824171b32e88cbfU, 0x7fa9d9d927d9d4f2U, 0x1a310000314cU, 0x197b0000089fU,
  0x9dbfffff3d6U, 0x1827000013e6U, 0xcd6000003d7U, 0xfffff468fffff33fU,
  0xfffff1a6000004abU, 0x76c0000147eU, 0xffffecbd00001400U, 0x433fffffb3cU,
  0xfffffea000000ed1U, 0x53900000dc0U, 0xfffff85f00001dfaU, 0x1d9000000cccU,
  0xffffe6d1ffffff24U, 0xfc500000a15U, 0x3eb6e06713433cdU, 0xba2ee45e7f26dbf1U,
  0xb9dd299c0dcfaecfU, 0x7ff0182cde089809U, 0xe1ed16b5063e8133U, 0x30f8e77f99b7f315U,
  0xf354b56f6d024881U, 0xcc00f308eea942f9U, 0xccfb1ce4e3ac1329U, 0xf1ba3501ef813d07U,
  0xe57213eab6e96167U, 0x1d18e8e90343d00cU, 0x81fe0f1177e1d2faU, 0x7f5febdcb2ad81e6U,
  0x3f4449667701c4e3U, 0x424c7f7f4b3b2847U, 0xe79d322c7f7fb5a3U, 0x41320bee2aa1a77fU,
  0x7f7f818110ba7f33U, 0xd67f7edf09817f91U, 0x287ffe160024ed7fU, 0xdd817f052d1a2817U,
  0xe6eb060c8c1313e4U, 0xfddddaf5c8010824U, 0xfa010000f8b6e3fdU, 0x3120c9b8e9d6dad4U,
  0x13031906507f3865U, 0x7fde00df55276daeU, 0xeab47f7fc5fcccc7U, 0x3148fd8715e3f33bU,
  0x1f11ed05813d074eU, 0x100213e37fcf4f7fU, 0xb52123af42a180fU, 0xb9b4360c094714f9U,
  0xe1d6f9f40cf6f9afU, 0x50eb07fcbad9e6d9U, 0x106dfffffe9dU, 0x308ffffff58U,
  0xffffecdefffff8eeU, 0xb40fffffff4U, 0xf34fffff71aU, 0xfffffedd0000111bU,
  0xfffffd35ffffffafU, 0xfffffff6fffffef4U, 0xfffff67cfffffe49U, 0xfffffd71fffffd86U,
  0x372000000b4U, 0xfffffee4ffffeed7U, 0xfffff5f4fffffe5eU, 0xfffffaef00000843U,
  0xfffff26dffffffb2U, 0xfffff21afffffb1aU, 0xd9eee50e77090ffbU, 0x7ff130f54539dbfbU,
  0xf30811f93004f2feU, 0xdeee21a210b28e9U, 0x5de2e3bcd9e28107U, 0xc910cfd903542417U,
  0x6d270e0b5ffad4eeU, 0xbc2b182429e5dd0eU, 0x39018c4b0831ee51U, 0x36db212c6223f2ddU,
  0xa5ee0eea7b07ed00U, 0xb8e430277f090600U, 0xdc34dad3110c27f9U, 0x39a4bff11a4f5914U,
  0xa47f1de6fda9dfe6U, 0xe4eddac60cebb515U, 0x3b1f9305b08102e7U, 0xcdd5cfe41b3eb011U,
  0xfd83cf7f7d5e7e9U, 0xe301a44624d7fbf2U, 0x350439f9b2e817ddU, 0x162b491a2130280bU,
  0xe4f401f52def577fU, 0xe11bd549f0b8db12U, 0xe9fdfd675d11b91fU, 0xeeb79f610df31bdfU,
  0xf95ff7f4ba0cde05U, 0xd1e89462c6168105U, 0xe7d2efe67f59cb4aU, 0x1a5db2cc33b5c6b0U,
  0x2260985b3b6b0a7eU, 0x2d04f021bd0a283fU, 0xd903bb1d7f03190cU, 0x912d1181c02c11cU,
  0xd7c76eec11e0bc0bU, 0xcc07c101822804f6U, 0xf4e5d6e3d13521deU, 0xf63c7fc1780502e2U,
  0xe2ffad1ac1449d5U, 0xb4b7ffc2fa23e756U, 0xdae4f44a064ede7fU, 0xe41a1d2cdb2134e7U,
  0xe6abf034fbdfdc0aU, 0xe21329ff290fe711U, 0xdf1bcbde0dc5410dU, 0x21f3fe9b3490d69U,
  0x1c45d81dffa16ceU, 0x53d50406156c18a7U, 0x22da478153c76cc2U, 0x9c4f2ec535fcb04U,
  0xa93de4271e15fcc5U, 0xf72cf327f0d34f27U, 0xe408f01c3cb13e02U, 0x537f42d5daf67e2cU,
  0x3c98d7dfe0d709e1U, 0x732df0572ef94cf0U, 0x45db1da154221341U, 0xd5389b0623eefe23U,
  0x28db2d3402f35ee7U, 0xd481907be541bb14U, 0xbec75c2108083df4U, 0x90732eee4147b8ccU,
  0x37c4f42f150f4310U, 0xe77f1f9b15bb0c20U, 0x793fa56b9fed005U, 0xdaa6de3d0ef4f581U,
  0x164a8320e236a4f4U, 0xd1301500dddcb01aU, 0xdf28f4cf03aec0bbU, 0x46f3b373d51528b9U,
  0x4eebd222bcef8e7fU, 0xebf0b29e6175517U, 0x5cfd20c41f0be60dU, 0x912528ff3103c9f6U,
  0x5ae8ff121eb221e6U, 0xc81857a02d4c3feU, 0x114ca32ee90acec5U, 0x14c31df70ad2f731U,
  0x8c2643ed6dfa4cbcU, 0x11d27810207f704U, 0x1a8fcc0e895781e2U, 0xdfccdf04b5b4fd84U,
  0x413bcebfafdf310U, 0x4232f52af807f0a0U, 0x70902e5584b7f18U, 0xbd1f23ebd9c50be2U,
  0xedf5f8143dfee425U, 0xc9e93212e42715fbU, 0xe2c70b02487fc334U, 0x408ffe9c2b026f7U,
  0xec8321489f6a04e0U, 0x18e5e801fd0bd012U, 0x1de62222d6edfdecU, 0x2815237ff83df300U,
  0x4fece7e1ddf9c35aU, 0xf92ef41bef00f6efU, 0xf013e1e37fe8e41dU, 0xc410e901fdf69f0eU,
  0x17c005f30b123ef5U, 0xff0c92afa09d6f8U, 0x30cdd87f1abe07abU, 0x2104132bc138e0bdU,
  0x361bc5e80241c8d6U, 0xf62693efa5c61cd3U, 0x7f5da2910523671U, 0xc6411d2bedff5011U,
  0xf094f76da5df2834U, 0xc503f8d45e7f3636U, 0x13ddd8ddffbaeef6U, 0xc501f5f0d829ec07U,
  0x5515fceef3fe05e9U, 0xe3d6e67ffb1c27eeU, 0xe00f6ca2bef140aU, 0xcbebcdae05f81ffcU,
  0xdd03110fd7e2ec29U, 0xdcb1ed7f1306112fU, 0xe12418d7ad062313U, 0x7de9f6f30b3c27ebU,
  0x8dc7ebf023080a40U, 0x26ee2e8143ff27f9U, 0xcc3813200a1601ffU, 0xf8107f0c04ead417U,
  0x70a170612f02303U, 0xe8dee2ffc9d62d08U, 0x2e47db06e103127fU, 0x333b2e0141fb0b3eU,
  0xf37102e61ff08faU, 0x11f7fd1c0829ff22U, 0x975fffff2bcU, 0x1439fffff5f9U,
  0xfffff8670000296cU, 0xffffeeb800000986U, 0xfffffdba0000211bU, 0xfffff95afffffa3dU,
  0xffffdefdfffff77cU, 0x1605fffff6bbU, 0x4730000261aU, 0x11a4fffff182U,
  0xfffff2fd0000256aU, 0xe3600001881U, 0xab300000382U, 0x1ceffffee8fU,
  0x16c30000100bU, 0xffffed60fffff164U, 0x20aa1b81524b0afaU, 0xbc812a2d2206ceceU,
  0xd8e4da6cc05e3ab8U, 0xe132d1efe74f4144U, 0x44ca21d5576442caU, 0x869249452c43cbebU,
  0xb0a4817fa2503c8dU, 0xab47a1eb535d536dU, 0x3612183cc74038e4U, 0xbccd3e260a4de5c3U,
  0xe7db993fca1f1cc6U, 0xaf2bcefac0342c39U, 0x2d835184665230b5U, 0xad8c5446620ad4bcU,
  0x81bbe45c9f645c9bU, 0xb973cfcf9547686bU, 0x7fa57f8e417f7f81U, 0x811e7f7f7f6a8181U,
  0x8d81ba7d817f7f81U, 0x817f81851a7f7f7fU, 0x6638551a815d69f3U, 0xa73f5a553c7fa388U,
  0xe9dec339bc4746e0U, 0x9b439aa82b461a46U, 0x2d812ea91f353cc7U, 0xf4cf3e2e54f1f6fcU,
  0xaab912f5d01630c6U, 0xc74df7e02a08431eU, 0x51b16888d15966c5U, 0xf06a36665e1f95b8U,
  0xc4d30209c4464fa9U, 0xbe57deb8815a3911U, 0x2f244ee1b74b3907U, 0xef3c1c3b2035bfafU,
  0x9050e0fe03932cbU, 0xd02fb98136370410U, 0xfffffaed000017f2U, 0xfffffe54ffffe859U,
  0xffffff66000017dfU, 0xfffffd21000017beU, 0x1a4900002420U, 0xfffffce6fffffc11U,
  0xfffff862fffff043U, 0x311900000604U, 0xfffff06600002248U, 0x29d20000015fU,
  0x17dc00000050U, 0x23c400001df9U, 0xfffff86600000556U, 0xffffffb4ffffee73U,
  0x328700001af8U, 0x20ec000000a3U, 0xf30af757ef00b3d5U, 0x1cd412f6d438db58U,
  0xddba05e92ffcea66U, 0x91ea81f50263cdbaU, 0x7ff1d82f2fa9dcc4U, 0xbddbdd462b3d2523U,
  0x34cedc147da150eU, 0xc03e2b19f52bd562U, 0x200af7fd462dcdbaU, 0x207fdfd9ab0ae0caU,
  0xf94e05c4a31d1cf5U, 0xca11bae114df18c3U, 0xad350e192d3e0e44U, 0xecedf1ebc429f318U,
  0xee0b07b1135bd32aU, 0x8ffd7fde0629cee5U, 0x7fefee11465269d3U, 0xeb0ed5f2b12bd1d4U,
  0x40a3fc07d8fa313bU, 0xb433dbc3fcd613feU, 0x3cfa18f7e5e6cccdU, 0xc5caa84d997ff04cU,
  0xe535ebaa581837ceU, 0xfba8ee3e0459e6e2U, 0xe518eaea181e00fdU, 0x70c20327fb13ff8U,
  0xe1d72052eb0512ecU, 0x51faf925ffc62bfcU, 0x171828eaef7302d4U, 0x7ff4fd302efc43bfU,
  0xf9090ffd25412110U, 0xc6ebdace15fac3f5U, 0x1bbcfbfd077dc4c3U, 0x7ff3d9f3030e01b0U,
  0x18a32642e1ed03fcU, 0xf408181a0b0dddf0U, 0xe6f213e829fd6427U, 0xdf13fff5ebf3ee07U,
  0x9a131881371ef11aU, 0xbd142a0c20330543U, 0xfa10d8f602f0b3e0U, 0xf90615217ffb0ffaU,
  0xff06c8ebfd13da0eU, 0xdb1614d20d13e614U, 0x21fc10e781e1fefbU, 0xa907c819be23c305U,
  0xb4ee11e6446ac40dU, 0xd0214be5f45ac772U, 0x45bdecfef90031d9U, 0xc72d04eff3f349cfU,
  0xe108447fc5eeea9eU, 0xf10f0e14fea10d23U, 0x10280b2c0acdc5efU, 0xd527081d4feb0ab5U,
  0x1802e5eab581e05eU, 0xeb76fbe1f929b13cU, 0x2517d93c0d06ccb6U, 0x8be7fbf9ce4cfffbU,
  0x2c9aebd4fcd0dd48U, 0xbb0827310626dd7fU, 0x1de805e92c25f7e2U, 0x7ff0b2f704c0f3d9U,
  0xe9fc0dfd574ffc00U, 0xfbd447ba1208c2dcU, 0x3a07f928fbe5faeaU, 0xcbfc99d3e04e14ecU,
  0x11ba8b2be5e2274eU, 0x7f2fe8191ec702U, 0xed2be90adb0bcf2dU, 0x600733004307e82fU,
  0x3b3bf17fe299ca0eU, 0xd82923e5f3c02fb7U, 0x42e14e26db167fdaU, 0x2f8a11fe7facbdbU,
  0x1d37c81aa0f4c205U, 0xc13d2dcef1e0e127U, 0x15f639c81ce312d7U, 0xf312c0c1f07418e0U,
  0x8100c5c5dcd30336U, 0xc452ed56eed19daaU, 0xffe10ea0306d41dU, 0xd001f1dad315e9deU,
  0x1281d60a2e08d126U, 0xf2d93fb8fa433738U, 0x2441a039f0818afeU, 0xa3fb50d1be10f25U,
  0xf513367d23d2cd22U, 0x761a76fe910b2b3U, 0x170d7fc934eb131aU, 0xeeb4b4f4172ce7f3U,
  0xc53d013007d7d712U, 0xfa07bce11df4b7fbU, 0x6b042d3f1e2f1fcU, 0xc2e7021db9cc41c5U,
  0xb0d807e5441613ceU, 0x44dbeb1207f27f50U, 0xba047ff4361f1205U, 0xe9ffca47d3e50df3U,
  0x203af3d7d9e9f3fcU, 0xd219f82806dc1df2U, 0x9cf816bfd1e82e08U, 0xfef782bce2f90626U,
  0x301c537fc3452bc6U, 0xe7d1b000b8ab0608U, 0xd1a2c081ced46f3U, 0xe0eb7fdae6f6de05U,
  0xf5e5f4f2120f1a1dU, 0xedf6eb18f60e140fU, 0xfeeeeed0dee6371aU, 0xcc0de7f3c22b0264U,
  0xea180f7f00ff18beU, 0x24d90622f3fb34fbU, 0x232c68254ef56226U, 0x81ee6aade12c39fcU,
  0xced8e603e490fa42U, 0x96d60c2d0aa71b2bU, 0xd5fdc426211b0d33U, 0x4aa5c1f30a21fa57U,
  0x7f30073e58eb63b8U, 0x50d49c9ec83c17d3U, 0x26e8092754b8e1f4U, 0xde1e94e801f6ff1bU,
  0xa91e08d1f17fef32U, 0xc9041d1c3d1af15cU, 0xe24429d3fdf1e7f9U, 0x1a4bfb297aeb2c81U,
  0x432c1a92f33242aU, 0x944c96e90c5a064eU, 0xbfaf08c550af1d14U, 0x881fc21103e2d704U,
  0xf969f93cbff1d7dbU, 0xf22c7ffd02f657c9U, 0xa3a4db00ed1cc61fU, 0xf8020ae4d97a0b01U,
  0xa0d8f82bffd8f0cdU, 0xd7a41d44f37f3beeU, 0xe5bb52f3477ce3e0U, 0x66d3bc0c243a19b7U,
  0x89e9085a7f001c3aU, 0x1c8308c2152397ceU, 0xe62279e407d5032fU, 0xfe120962fca40e0dU,
  0xb7fe7f0032407edU, 0xdf20faeaf1cb4cd8U, 0x680e5bff23812fd8U, 0xd6f71e8e1ec2c4ddU,
  0xb4d5e5280412da40U, 0x9414e1f537dc19bfU, 0xfa54b6f1cabd081eU, 0xd83dfd09002fce0bU,
  0x1427cfc900d1e708U, 0xcf7ffc2f2a1606c6U, 0xfb0def092504c909U, 0xe320c6e9070d0efaU,
  0xe41217ec097f1315U, 0xf1e63ff307d30911U, 0xae2033aef649dd41U, 0xc87fb4c0d773073fU,
  0xd73bd09a0136d633U, 0x8b171fece62b25d6U, 0x4915e107e4c2f010U, 0xe8f100f6ebc6fb08U,
  0xb2d5e7b93101e01fU, 0xce7f6b25f7eced48U, 0x321547f9241e3e1fU, 0xa30bb779287f0b6cU,
  0xed7c514401a8b5a5U, 0xbfcbcc231539538bU, 0xc8ca2bedb5fc221aU, 0x1908d2074505e250U,
  0xf61c29415f33f69bU, 0x3df22fe4eb3aec81U, 0xf7eefa2b1d16a9d6U, 0x154331f825f83efaU,
  0xe91b0a1c0fc9e90bU, 0x16031a460daf7f1aU, 0x85e047151dc5ebb3U, 0x8109d2f72208e134U,
  0xcfd84915fa13e667U, 0xfc17b473f3c5e8f5U, 0xf1af35eff10f11e8U, 0xe0ebd10ec8f815f4U,
  0x60a2734d8020003U, 0x1f0a4b2fe3e07f19U, 0xf333ec7cf666c3c0U, 0x9f48e6febdf6d815U,
  0xfa181c9abb22c3e8U, 0xcc7fd500efd32b9aU, 0xe53a16fff9c4dc5bU, 0x32eee8080ec6df46U,
  0x72b5b222d197fdfU, 0xae6d3f6111708eeU, 0x426bf2a25c4fe08U, 0x7f1b076b2bbc2b0dU,
  0xcafe010c20fa38bcU, 0x43efe231f5e707a6U, 0x5fec3262030787afU, 0xaa34ace9815546cbU,
  0x6bc27b61315f119U, 0x96fe27b815a4ee7bU, 0xd906d7e5051bfe00U, 0x51703d07f0c0be1U,
  0xf81018b7e710fb1eU, 0x1610f3d0012b0035U, 0x2e26ca04f1cef714U, 0xe809d781f503d808U,
  0xafc7003f2e03fed4U, 0xf06011b1440deeeU, 0x12c2f6d9147e7fd4U, 0x51807f6052931e0U,
  0xd13a44fc2c421dddU, 0x13c0dccc1a051bebU, 0xdceaf8eff7122747U, 0xfef1c7eed3de1cf1U,
  0x81db38f95c312003U, 0xfd1348fc05c75334U, 0x7bfbeedc3942ef8aU, 0xd927e9fbcfef00b8U,
  0xe218e8b7e8dfdc21U, 0xea7ff40c09e656e4U, 0xd93cafcc17f61b58U, 0x50ca1c3f7f5fbb55U,
  0xea2501683fede000U, 0x23c5cde3c73617d6U, 0xe72c26e93408e8e9U, 0xfa09facbf2d4e491U,
  0x8113a4e2375e3908U, 0xb0a0bef4ce5ede1U, 0x1c220b23f3050300U, 0xdf06fdefe0f70602U,
  0x2de2151209110c0fU, 0x161c8125edfcda12U, 0xf033d1e0f700d50aU, 0x3010e04a0906ee01U,
  0x2e23cd0222faf9e0U, 0x13eb7feaeae43522U, 0x1e21ed08f421fb1eU, 0x1ffffc47f142b03U,
  0xfa301b1ceb2ce5faU, 0xed0bebf4e8db0930U, 0x51c323a0eafd26b7U, 0xbbbecfc7c32709b7U,
  0xd8e6f6f76d7f061aU, 0xf034f6fb24ffc869U, 0xdb33a5dffde0e127U, 0x1023321f56f22421U,
  0x8546e1377f1975f0U, 0x3edb35ffff2817f6U, 0xdf02053adc598905U, 0xb20f0fd52260d906U,
  0xdd02fe03d05fce44U, 0xfd33e710de7ff907U, 0xc2382aec13e07f19U, 0xf8dda1aeb001f5e7U,
  0x15e740cf095bbdbbU, 0xd1b4f9cf1a09ab3aU, 0xffffe8ce00001f0dU, 0xfffffea700002099U,
  0x1ce20000074bU, 0xa20fffff77cU, 0xffffef010000085eU, 0x1d9300000e84U,
  0xf7200000beaU, 0x5280000231eU, 0xfffff20f00001106U, 0x247500000620U,
  0x1b4700000864U, 0xdcc000007f6U, 0xcdf00000617U, 0xd2cffffff24U,
  0x113c0000069dU, 0x421000000c5U, 0x1e4800001813U, 0xfffff9abfffffd69U,
  0xeb900000fd6U, 0x1c33fffffaf0U, 0x12a80000044bU, 0xfffff70a000001f1U,
  0xfffffc5000002247U, 0xffffedd800002244U, 0x2d27fffff7e2U, 0x2bf9000008bdU,
  0xfffff86000000c12U, 0xffffec20000019e6U, 0x9ba00001ec0U, 0xffffef76ffffebe0U,
  0xffffe9c500001711U, 0xffd0000070aU, 0x49ce154ef3d602dcU, 0xd47f04fea7d91fc8U,
  0xfd81c63ca5cbb50cU, 0xf7b21d1b3061e6bbU, 0x322bdc81e4cdeacfU, 0xa5736fec1de06aeU,
  0x4b7f81aae67f0106U, 0xbeb0001e2bfcbbaU, 0xe6ce1f60f6db7f2dU, 0x85306a81fddeb5c6U,
  0x7fa58145dc43627fU, 0x7fdab47f9550fb36U, 0x3981d58623f77fb6U, 0xfd6bdbc37eba3da4U,
  0xd59ff5813ffd2adbU, 0x130835c530f0cce7U, 0xba152f590950f8e4U, 0xf29c811a45e3c849U,
  0x140aaccf340a60ffU, 0x3c1c2e211ea1c9bdU, 0x81dccdcaf8c20dcfU, 0xfac5e32281e00e9aU,
  0x28d47cdb711dab36U, 0x93d8f2d9f6ee5504U, 0x7fb775c41ab3eea5U, 0x92281db581be7fc6U,
  0x24b9164fb37f5da8U, 0xc9097fc32dd29725U, 0x354807bbfbe994bcU, 0x1817f7f1eb8d3ccU,
  0x997ba1158f04d710U, 0x60f0f444e67f81b9U, 0xe5c3617f7f7f497fU, 0xecac73a935ba3006U,
  0x3ed165db7f221548U, 0xe87f834e81816ebdU, 0x5f717f987f24423eU, 0x7f5dedddcf00eae8U,
  0x9dc9eefa8d827f81U, 0x28ca7f2c7f2df281U, 0xa8436e3213231958U, 0x64c1f97654d1137fU,
  0x2be8268119d21b47U, 0x2733dae110cc2bedU, 0x9dbd2ce1f4f84f7fU, 0xf332afa387e5e8ffU,
  0x6ecc690d1cd9e616U, 0xa165178125d17be0U, 0x3e9f7f35e40114f0U, 0xb3a6c477b755e0b0U,
  0xd398ec28f2f67f9fU, 0xd32d7cba2bac817fU, 0x2b5139f0f811a38U, 0xe15349a54bf02cU,
  0x810af73b6b2ff424U, 0x7ffce202fa68ddf1U, 0xf5816e02163c1749U, 0x7fe2dd321e7f602eU,
  0xe6dd4dc938acbcceU, 0xc50be6a6c6391eadU, 0x26250eb530bed629U, 0x1e870b158f7fab7fU,
  0x24cbd849eaeee7bbU, 0x7b81ef3e50fc0ffaU, 0xb866d0f9ffcae92cU, 0x7258db5d0655741eU,
  0xe01ef0dbb4d7c0fdU, 0xefbeecc40046210eU, 0xb51c1fe5e8b3e4ccU, 0xdba8b3a3081d8147U,
  0x71ea2b0d81192ab2U, 0x92905bce9e223f3U, 0xfffffc16fffff526U, 0xfffffe47fffffb5dU,
  0xffffed61ffffef22U, 0xfffffede00000971U, 0xfffffd38fffffe95U, 0x5d2fffffcdeU,
  0xc7ffffff09U, 0xfffffe9e00000248U, 0xfffff892fffffe00U, 0x11ffffffdeeU,
  0x2d700000407U, 0xfffffcfc00001438U, 0x150000000e4U, 0x685ffffffefU,
  0xffffff26ffffff42U, 0xffffffc1fffffe57U, 0xfffffdb2fffffdf8U, 0xfffffa3300000c97U,
  0x600000d7bU, 0xfffffe5cffffff39U, 0xb300000053eU, 0xd00ffffff8cU,
  0xfffffe5effffffe5U, 0xfffffc7d00000190U, 0xfffffe14000009efU, 0x48fffffff91U,
  0xfffffd600000036fU, 0xfffffed400000101U, 0xffffff3e0000103aU, 0xfffff903fffffa06U,
  0xfffff99e00000416U, 0xfffff7f8000002cfU, 0xcc42d000dce221deU, 0xef5550c0dbecaeffU,
  0x233dbb38c44ac1e9U, 0x40ab8dbe22830beU, 0x8cc8a4163d4209ecU, 0x9cc1fdf5767f8f2U,
  0x6e7130f9fbf47f2dU, 0x14be83b093a0a1dU, 0xcde2acc6b120beb7U, 0x2fe5111f61df7fcU,
  0xe67f3a0af123f776U, 0x39f6d826c71863ceU, 0xde52e2eabb1110dbU, 0x2367b19ffe084117U,
  0x9e0f54f16a02df8U, 0xb0e9062fcdbd344eU, 0xe8e3512ac9d01739U, 0x16ffbce8d5f2e239U,
  0xe7b028b50b693138U, 0xaf01c5bbeca4f534U, 0xc23ecf53d75ff8U, 0x36d3207fe5efa309U,
  0x772825f0401e6a07U, 0xe7105abc5501e5daU, 0x2ffc00fc1c0c590bU, 0xede4420fe1c1e9e1U,
  0xe9bfd215c9f6cec8U, 0x271814f0f71818f7U, 0x5dabc232ed31136U, 0x1e1d0e4efccfe5f7U,
  0x921bf6a2de0506d7U, 0x11287f6db2182dd4U, 0x972abbef551d17bcU, 0xccff8ea236d0159eU,
  0x341cfee2200427d2U, 0xd67fc902c719e80dU, 0x546006339a5e57f4U, 0xe8d9bec9adae0434U,
  0xee0fa6c2ccab6606U, 0x1f8ec7ee704e3ccU, 0xd53cf9f7c3db42a5U, 0xdccd4704f43dcce2U,
  0x10097f08d1f5155fU, 0x28113edae1356cf6U, 0xfbce8ed3c90282caU, 0x3c1fb2b6ea7c2496U,
  0x2930d90fcd1e66c3U, 0x4f91420ba1ac0caU, 0xe726916b2c34c5c5U, 0xf005b5a515f620e7U,
  0xd40c080f1c5ef176U, 0x102541b7f7c309fbU, 0x1c11dfedb700d9f3U, 0x81150403160d1fffU,
  0x5222149f2174440U, 0x3eec8f25cef521a6U, 0x384a24bb45e7227fU, 0xcb20fe3ff7e4fddcU,
  0xf30029dd03105308U, 0x3caef6ff0bf2481aU, 0xdc070c29d0ce3f10U, 0x31092652d3f5ceddU,
  0x39f521d9e5010430U, 0xa0e120be417d053U, 0x30e5d0402730b3b0U, 0x6ecbce7cf3d9bd3U,
  0x45237f14cd149312U, 0x4aab3031071c14dfU, 0xabaab1e1bfa8e43U, 0x2f40ebb10f1522a7U,
  0xf0bce84fce23be0cU, 0x29dd25c6071f120aU, 0x5207dbcd4709241dU, 0x25ee4d1b30fdd930U,
  0xb22ff24907e2c9e7U, 0xd904e3af7fe10a30U, 0x21f4c91d35abf9f8U, 0xe4da11f9dbfd100fU,
  0xfc06fd0acbc300f8U, 0x1af91d1029523f17U, 0x1211cc26fc79c216U, 0x2b1046f80b180f4fU,
  0xfcd52d06022933f5U, 0xf1656de7f0c180aU, 0xebdec8e547e01446U, 0xea11070dd69d3634U,
  0x8fc2ae223cd3717U, 0xddec05c313e00dfbU, 0x20c2bd476450dec0U, 0x54dbe3e444ee201cU,
  0xd6efad105010ccb5U, 0x17f40061d1f660cU, 0x2ff1d32af63efeedU, 0x2908cea9c544090fU,
  0x10d718083669c8ecU, 0xc6ee9ab0b4c238d5U, 0xd1f4f6adb5f4ed1aU, 0xedf1d9f52e1d0df2U,
  0xf40d3af60be91517U, 0xcee0ed090225d530U, 0xefe8dbebbad620b7U, 0x7fd03ff5f2b8225bU,
  0xffdea76e1fe16c0U, 0xc6223643e4fbf5ebU, 0xe53be334e41c10c7U, 0x6e0b611deb1f135U,
  0xf0e5f06