/**
  ******************************************************************************
  * @file    network_data_params.c
  * @author  AST Embedded Analytics Research Platform
  * @date    Sat Sep 16 16:25:26 2023
  * @brief   AI Tool Automatic Code Generator for Embedded NN computing
  ******************************************************************************
  * Copyright (c) 2023 STMicroelectronics.
  * All rights reserved.
  *
  * This software is licensed under terms that can be found in the LICENSE file
  * in the root directory of this software component.
  * If no LICENSE file comes with this software, it is provided AS-IS.
  ******************************************************************************
  */

#include "network_data_params.h"


/**  Activations Section  ****************************************************/
ai_handle g_network_activations_table[1 + 2] = {
  AI_HANDLE_PTR(AI_MAGIC_MARKER),
  AI_HANDLE_PTR(NULL),
  AI_HANDLE_PTR(AI_MAGIC_MARKER),
};




/**  Weights Section  ********************************************************/
AI_ALIGNED(32)
const ai_u64 s_network_weights_array_u64[4983] = {
  0x813818e00d0ee61aU, 0x1c19b52412d9082fU, 0x26000a01f4ec33e0U, 0x6d92806c909db09U,
  0xc21950c8121eb71dU, 0x7e7fdb2b13d82217U, 0xb6bc1ceadb4c29e6U, 0xf9f8d5bca1bfb3a8U,
  0xefe7eafad00a0e62U, 0x2451677f5f364412U, 0xf7f0a292443e73aU, 0xe4ed05352d2438ddU,
  0x86d2e419e7ef96b9U, 0x81513454170a12e2U, 0x38742fffe874b59bU, 0x4c19a597e64708acU,
  0x54a0949d09126e1fU, 0xb7cf73e8a17f0dafU, 0xee36c2f53febcb13U, 0x1ae9ebcc44bf44e1U,
  0x1581dbf8ef4532b8U, 0xe4c6efddf50bb604U, 0x34dc00f32a3f14cU, 0xf2d1280cd6352ffbU,
  0xeb544e814fe9f2fdU, 0x77debb3cfdbb59c3U, 0x22b520e4947ed6deU, 0xffffd05a00001677U,
  0x417800002eceU, 0x1ef30000597aU, 0x54b70000879aU, 0x32da19041c0cd6caU,
  0xc40d6525bd7fb8adU, 0x4f56cbeff08c4e5U, 0x377f48efcfdafd7fU, 0xed0598b3c8ea676aU,
  0x81ea9c797f0d7fefU, 0x48ecdb24e2e59a49U, 0xf60381816ebf7d66U, 0xeff4e25fdfff19c2U,
  0xfffff5e1fffffeb4U, 0x2500000565U, 0x1864ffffff3cU, 0xd85fffffd25U,
  0xe73b20e37ffcaff9U, 0x94444b1ec47fffe5U, 0xff81f5081bf6e282U, 0x81e5ea0a19edc13fU,
  0x7f3e72fabcc6954dU, 0xff8110feae68f023U, 0x2e5fd7fde021d00U, 0x7ff8ec291ff2d1b6U,
  0x4c3fbf80405577fU, 0xcaee810acff9a8c6U, 0xd24ebebf38113e8U, 0x353aa8fffe00c37fU,
  0xe2ff47f0af4d6d6U, 0xe86102c2948191c3U, 0x304d1dd7f76e50cU, 0x154c7fe8441b11e5U,
  0xfffffe0dfffffe07U, 0x108300001558U, 0x9440000200cU, 0xfffffe720000018cU,
  0x1a2cfffffdc0U, 0x100000850U, 0x25a2ffffffaeU, 0xfffff2f9fffff790U,
  0x19e1aa07efeb133eU, 0x4aeb44f9d344c71bU, 0x3fe5e5d4d0a7df81U, 0x7fa520c94c5ba890U,
  0x14f222ddf3e8b23cU, 0x23e9e0cc7fffdc81U, 0x3b9881f381eef9a4U, 0x5bd975e7dc25bb0aU,
  0x7f81bc818c819e33U, 0x718149814c7f81c9U, 0x30cf38bcfed9813eU, 0x17b581cb3945b8c3U,
  0x2ca6c8eac0e9d800U, 0xfce96ceee1f4020aU, 0x1896cecfe0d8a83dU, 0xe7d630ce0531dc20U,
  0xfee527f31ce6e2ecU, 0xd6c998e3cd55c842U, 0x1d0effffff3dU, 0x1e8c00001344U,
  0x294600001a6aU, 0xffffffab000014f6U, 0x1cb100001b5aU, 0x31200000157U,
  0x3f7000016a6U, 0xffffff1b00002c43U, 0xefeb810b21f91beeU, 0x3eee01701cb0c0dU,
  0x133081212b14afe6U, 0x50a0f5290825cc03U, 0x13dab5ffbe20f005U, 0x70ee2efed7fef18U,
  0xf81f907de26f33aU, 0x216c88a0bfbd816U, 0xf31f6ddae4dc5e7U, 0x7f2b639e2f69c146U,
  0x47cd1caa1404077fU, 0xa17f1b3edee0f11U, 0x88a8667feb47ff06U, 0x209100f2ef0cd2b9U,
  0x52d32881f2f9a901U, 0x7eaef404e9e529f5U, 0x14f57f23fb2815f0U, 0x12fa45c5e68605deU,
  0xd0a2308df11127fU, 0x12a1d2f833fb29cbU, 0x35320cac1601180aU, 0xcedd0127087fd947U,
  0x23264c1fe5037f2aU, 0x38c6866105ebca08U, 0x3cfeecef7fff10fbU, 0x40df005a603fb1cU,
  0xfb3074e13c7fbefdU, 0x2916e9e735f3002bU, 0x37ef03e7cd3ad4f9U, 0x15e408d87f17fa91U,
  0x40f0fc1cd5cb2a1bU, 0x11ed1f0781ebda4fU, 0x7f13e99d7bfa22feU, 0x1a07df11fae776ceU,
  0x18aa2c41684727f8U, 0x1ad75836e1485081U, 0x7c26b800d310e9dcU, 0xee1df4437f4dbb01U,
  0x22de166b15002a1cU, 0x7181de0641e21501U, 0xeec48108fd47f20aU, 0xf24fad0a15370142U,
  0xbe32d615574adf14U, 0xe7127ff1f44113fdU, 0x8f256bf50fba5d62U, 0x5781440bbe36b17bU,
  0xe80ef224b1301cfdU, 0xe9d61c097fe6d5baU, 0xfbe4e30c142df30dU, 0xd20512d5ff81ec08U,
  0x3c0ffbffcb22e112U, 0x127ffed13bc8f3fdU, 0x92f6f918461b2e3aU, 0x7fa1d7f806022bfbU,
  0xec1be2fe0eb14beU, 0xa425af7f089156fbU, 0xe3fd29789d0bbb03U, 0x6f72f0c501c8134U,
  0x372f10c65cea0bf1U, 0x2162e32d7ffb0cecU, 0x96afec903e00b52bU, 0x5f1ce0fa79356381U,
  0x7824171b32e88cbfU, 0x7fa9d9d927d9d4f2U, 0x1a310000314cU, 0x197b0000089fU,
  0x9dbfffff3d6U, 0x1827000013e6U, 0xcd6000003d7U, 0xfffff468fffff33fU,
  0xfffff1a6000004abU, 0x76c0000147eU, 0xffffecbd00001400U, 0x433fffffb3cU,
  0xfffffea000000ed1U, 0x53900000dc0U, 0xfffff85f00001dfaU, 0x1d9000000cccU,
  0xffffe6d1ffffff24U, 0xfc500000a15U, 0x3eb6e06713433cdU, 0xba2ee45e7f26dbf1U,
  0xb9dd299c0dcfaecfU, 0x7ff0182cde089809U, 0xe1ed16b5063e8133U, 0x30f8e77f99b7f315U,
  0xf354b56f6d024881U, 0xcc00f308eea942f9U, 0xccfb1ce4e3ac1329U, 0xf1ba3501ef813d07U,
  0xe57213eab6e96167U, 0x1d18e8e90343d00cU, 0x81fe0f1177e1d2faU, 0x7f5febdcb2ad81e6U,
  0x3f4449667701c4e3U, 0x424c7f7f4b3b2847U, 0xe79d322c7f7fb5a3U, 0x41320bee2aa1a77fU,
  0x7f7f818110ba7f33U, 0xd67f7edf09817f91U, 0x287ffe160024ed7fU, 0xdd817f052d1a2817U,
  0xe6eb060c8c1313e4U, 0xfddddaf5c8010824U, 0xfa010000f8b6e3fdU, 0x3120c9b8e9d6dad4U,
  0x13031906507f3865U, 0x7fde00df55276daeU, 0xeab47f7fc5fcccc7U, 0x3148fd8715e3f33bU,
  0x1f11ed05813d074eU, 0x100213e37fcf4f7fU, 0xb52123af42a180fU, 0xb9b4360c094714f9U,
  0xe1d6f9f40cf6f9afU, 0x50eb07fcbad9e6d9U, 0x106dfffffe9dU, 0x308ffffff58U,
  0xffffecdefffff8eeU, 0xb40fffffff4U, 0xf34fffff71aU, 0xfffffedd0000111bU,
  0xfffffd35ffffffafU, 0xfffffff6fffffef4U, 0xfffff67cfffffe49U, 0xfffffd71fffffd86U,
  0x372000000b4U, 0xfffffee4ffffeed7U, 0xfffff5f4fffffe5eU, 0xfffffaef00000843U,
  0xfffff26dffffffb2U, 0xfffff21afffffb1aU, 0xd9eee50e77090ffbU, 0x7ff130f54539dbfbU,
  0xf30811f93004f2feU, 0xdeee21a210b28e9U, 0x5de2e3bcd9e28107U, 0xc910cfd903542417U,
  0x6d270e0b5ffad4eeU, 0xbc2b182429e5dd0eU, 0x39018c4b0831ee51U, 0x36db212c6223f2ddU,
  0xa5ee0eea7b07ed00U, 0xb8e430277f090600U, 0xdc34dad3110c27f9U, 0x39a4bff11a4f5914U,
  0xa47f1de6fda9dfe6U, 0xe4eddac60cebb515U, 0x3b1f9305b08102e7U, 0xcdd5cfe41b3eb011U,
  0xfd83cf7f7d5e7e9U, 0xe301a44624d7fbf2U, 0x350439f9b2e817ddU, 0x162b491a2130280bU,
  0xe4f401f52def577fU, 0xe11bd549f0b8db12U, 0xe9fdfd675d11b91fU, 0xeeb79f610df31bdfU,
  0xf95ff7f4ba0cde05U, 0xd1e89462c6168105U, 0xe7d2efe67f59cb4aU, 0x1a5db2cc33b5c6b0U,
  0x2260985b3b6b0a7eU, 0x2d04f021bd0a283fU, 0xd903bb1d7f03190cU, 0x912d1181c02c11cU,
  0xd7c76eec11e0bc0bU, 0xcc07c101822804f6U, 0xf4e5d6e3d13521deU, 0xf63c7fc1780502e2U,
  0xe2ffad1ac1449d5U, 0xb4b7ffc2fa23e756U, 0xdae4f44a064ede7fU, 0xe41a1d2cdb2134e7U,
  0xe6abf034fbdfdc0aU, 0xe21329ff290fe711U, 0xdf1bcbde0dc5410dU, 0x21f3fe9b3490d69U,
  0x1c45d81dffa16ceU, 0x53d50406156c18a7U, 0x22da478153c76cc2U, 0x9c4f2ec535fcb04U,
  0xa93de4271e15fcc5U, 0xf72cf327f0d34f27U, 0xe408f01c3cb13e02U, 0x537f42d5daf67e2cU,
  0x3c98d7dfe0d709e1U, 0x732df0572ef94cf0U, 0x45db1da154221341U, 0xd5389b0623eefe23U,
  0x28db2d3402f35ee7U, 0xd481907be541bb14U, 0xbec75c2108083df4U, 0x90732eee4147b8ccU,
  0x37c4f42f150f4310U, 0xe77f1f9b15bb0c20U, 0x793fa56b9fed005U, 0xdaa6de3d0ef4f581U,
  0x164a8320e236a4f4U, 0xd1301500dddcb01aU, 0xdf28f4cf03aec0bbU, 0x46f3b373d51528b9U,
  0x4eebd222bcef8e7fU, 0xebf0b29e6175517U, 0x5cfd20c41f0be60dU, 0x912528ff3103c9f6U,
  0x5ae8ff121eb221e6U, 0xc81857a02d4c3feU, 0x114ca32ee90acec5U, 0x14c31df70ad2f731U,
  0x8c2643ed6dfa4cbcU, 0x11d27810207f704U, 0x1a8fcc0e895781e2U, 0xdfccdf04b5b4fd84U,
  0x413bcebfafdf310U, 0x4232f52af807f0a0U, 0x70902e5584b7f18U, 0xbd1f23ebd9c50be2U,
  0xedf5f8143dfee425U, 0xc9e93212e42715fbU, 0xe2c70b02487fc334U, 0x408ffe9c2b026f7U,
  0xec8321489f6a04e0U, 0x18e5e801fd0bd012U, 0x1de62222d6edfdecU, 0x2815237ff83df300U,
  0x4fece7e1ddf9c35aU, 0xf92ef41bef00f6efU, 0xf013e1e37fe8e41dU, 0xc410e901fdf69f0eU,
  0x17c005f30b123ef5U, 0xff0c92afa09d6f8U, 0x30cdd87f1abe07abU, 0x2104132bc138e0bdU,
  0x361bc5e80241c8d6U, 0xf62693efa5c61cd3U, 0x7f5da2910523671U, 0xc6411d2bedff5011U,
  0xf094f76da5df2834U, 0xc503f8d45e7f3636U, 0x13ddd8ddffbaeef6U, 0xc501f5f0d829ec07U,
  0x5515fceef3fe05e9U, 0xe3d6e67ffb1c27eeU, 0xe00f6ca2bef140aU, 0xcbebcdae05f81ffcU,
  0xdd03110fd7e2ec29U, 0xdcb1ed7f1306112fU, 0xe12418d7ad062313U, 0x7de9f6f30b3c27ebU,
  0x8dc7ebf023080a40U, 0x26ee2e8143ff27f9U, 0xcc3813200a1601ffU, 0xf8107f0c04ead417U,
  0x70a170612f02303U, 0xe8dee2ffc9d62d08U, 0x2e47db06e103127fU, 0x333b2e0141fb0b3eU,
  0xf37102e61ff08faU, 0x11f7fd1c0829ff22U, 0x975fffff2bcU, 0x1439fffff5f9U,
  0xfffff8670000296cU, 0xffffeeb800000986U, 0xfffffdba0000211bU, 0xfffff95afffffa3dU,
  0xffffdefdfffff77cU, 0x1605fffff6bbU, 0x4730000261aU, 0x11a4fffff182U,
  0xfffff2fd0000256aU, 0xe3600001881U, 0xab300000382U, 0x1ceffffee8fU,
  0x16c30000100bU, 0xffffed60fffff164U, 0x20aa1b81524b0afaU, 0xbc812a2d2206ceceU,
  0xd8e4da6cc05e3ab8U, 0xe132d1efe74f4144U, 0x44ca21d5576442caU, 0x869249452c43cbebU,
  0xb0a4817fa2503c8dU, 0xab47a1eb535d536dU, 0x3612183cc74038e4U, 0xbccd3e260a4de5c3U,
  0xe7db993fca1f1cc6U, 0xaf2bcefac0342c39U, 0x2d835184665230b5U, 0xad8c5446620ad4bcU,
  0x81bbe45c9f645c9bU, 0xb973cfcf9547686bU, 0x7fa57f8e417f7f81U, 0x811e7f7f7f6a8181U,
  0x8d81ba7d817f7f81U, 0x817f81851a7f7f7fU, 0x6638551a815d69f3U, 0xa73f5a553c7fa388U,
  0xe9dec339bc4746e0U, 0x9b439aa82b461a46U, 0x2d812ea91f353cc7U, 0xf4cf3e2e54f1f6fcU,
  0xaab912f5d01630c6U, 0xc74df7e02a08431eU, 0x51b16888d15966c5U, 0xf06a36665e1f95b8U,
  0xc4d30209c4464fa9U, 0xbe57deb8815a3911U, 0x2f244ee1b74b3907U, 0xef3c1c3b2035bfafU,
  0x9050e0fe03932cbU, 0xd02fb98136370410U, 0xfffffaed000017f2U, 0xfffffe54ffffe859U,
  0xffffff66000017dfU, 0xfffffd21000017beU, 0x1a4900002420U, 0xfffffce6fffffc11U,
  0xfffff862fffff043U, 0x311900000604U, 0xfffff06600002248U, 0x29d20000015fU,
  0x17dc00000050U, 0x23c400001df9U, 0xfffff86600000556U, 0xffffffb4ffffee73U,
  0x328700001af8U, 0x20ec000000a3U, 0xf30af757ef00b3d5U, 0x1cd412f6d438db58U,
  0xddba05e92ffcea66U, 0x91ea81f50263cdbaU, 0x7ff1d82f2fa9dcc4U, 0xbddbdd462b3d2523U,
  0x34cedc147da150eU, 0xc03e2b19f52bd562U, 0x200af7fd462dcdbaU, 0x207fdfd9ab0ae0caU,
  0xf94e05c4a31d1cf5U, 0xca11bae114df18c3U, 0xad350e192d3e0e44U, 0xecedf1ebc429f318U,
  0xee0b07b1135bd32aU, 0x8ffd7fde0629cee5U, 0x7fefee11465269d3U, 0xeb0ed5f2b12bd1d4U,
  0x40a3fc07d8fa313bU, 0xb433dbc3fcd613feU, 0x3cfa18f7e5e6cccdU, 0xc5caa84d997ff04cU,
  0xe535ebaa581837ceU, 0xfba8ee3e0459e6e2U, 0xe518eaea181e00fdU, 0x70c20327fb13ff8U,
  0xe1d72052eb0512ecU, 0x51faf925ffc62bfcU, 0x171828eaef7302d4U, 0x7ff4fd302efc43bfU,
  0xf9090ffd25412110U, 0xc6ebdace15fac3f5U, 0x1bbcfbfd077dc4c3U, 0x7ff3d9f3030e01b0U,
  0x18a32642e1ed03fcU, 0xf408181a0b0dddf0U, 0xe6f213e829fd6427U, 0xdf13fff5ebf3ee07U,
  0x9a131881371ef11aU, 0xbd142a0c20330543U, 0xfa10d8f602f0b3e0U, 0xf90615217ffb0ffaU,
  0xff06c8ebfd13da0eU, 0xdb1614d20d13e614U, 0x21fc10e781e1fefbU, 0xa907c819be23c305U,
  0xb4ee11e6446ac40dU, 0xd0214be5f45ac772U, 0x45bdecfef90031d9U, 0xc72d04eff3f349cfU,
  0xe108447fc5eeea9eU, 0xf10f0e14fea10d23U, 0x10280b2c0acdc5efU, 0xd527081d4feb0ab5U,
  0x1802e5eab581e05eU, 0xeb76fbe1f929b13cU, 0x2517d93c0d06ccb6U, 0x8be7fbf9ce4cfffbU,
  0x2c9aebd4fcd0dd48U, 0xbb0827310626dd7fU, 0x1de805e92c25f7e2U, 0x7ff0b2f704c0f3d9U,
  0xe9fc0dfd574ffc00U, 0xfbd447ba1208c2dcU, 0x3a07f928fbe5faeaU, 0xcbfc99d3e04e14ecU,
  0x11ba8b2be5e2274eU, 0x7f2fe8191ec702U, 0xed2be90adb0bcf2dU, 0x600733004307e82fU,
  0x3b3bf17fe299ca0eU, 0xd82923e5f3c02fb7U, 0x42e14e26db167fdaU, 0x2f8a11fe7facbdbU,
  0x1d37c81aa0f4c205U, 0xc13d2dcef1e0e127U, 0x15f639c81ce312d7U, 0xf312c0c1f07418e0U,
  0x8100c5c5dcd30336U, 0xc452ed56eed19daaU, 0xffe10ea0306d41dU, 0xd001f1dad315e9deU,
  0x1281d60a2e08d126U, 0xf2d93fb8fa433738U, 0x2441a039f0818afeU, 0xa3fb50d1be10f25U,
  0xf513367d23d2cd22U, 0x761a76fe910b2b3U, 0x170d7fc934eb131aU, 0xeeb4b4f4172ce7f3U,
  0xc53d013007d7d712U, 0xfa07bce11df4b7fbU, 0x6b042d3f1e2f1fcU, 0xc2e7021db9cc41c5U,
  0xb0d807e5441613ceU, 0x44dbeb1207f27f50U, 0xba047ff4361f1205U, 0xe9ffca47d3e50df3U,
  0x203af3d7d9e9f3fcU, 0xd219f82806dc1df2U, 0x9cf816bfd1e82e08U, 0xfef782bce2f90626U,
  0x301c537fc3452bc6U, 0xe7d1b000b8ab0608U, 0xd1a2c081ced46f3U, 0xe0eb7fdae6f6de05U,
  0xf5e5f4f2120f1a1dU, 0xedf6eb18f60e140fU, 0xfeeeeed0dee6371aU, 0xcc0de7f3c22b0264U,
  0xea180f7f00ff18beU, 0x24d90622f3fb34fbU, 0x232c68254ef56226U, 0x81ee6aade12c39fcU,
  0xced8e603e490fa42U, 0x96d60c2d0aa71b2bU, 0xd5fdc426211b0d33U, 0x4aa5c1f30a21fa57U,
  0x7f30073e58eb63b8U, 0x50d49c9ec83c17d3U, 0x26e8092754b8e1f4U, 0xde1e94e801f6ff1bU,
  0xa91e08d1f17fef32U, 0xc9041d1c3d1af15cU, 0xe24429d3fdf1e7f9U, 0x1a4bfb297aeb2c81U,
  0x432c1a92f33242aU, 0x944c96e90c5a064eU, 0xbfaf08c550af1d14U, 0x881fc21103e2d704U,
  0xf969f93cbff1d7dbU, 0xf22c7ffd02f657c9U, 0xa3a4db00ed1cc61fU, 0xf8020ae4d97a0b01U,
  0xa0d8f82bffd8f0cdU, 0xd7a41d44f37f3beeU, 0xe5bb52f3477ce3e0U, 0x66d3bc0c243a19b7U,
  0x89e9085a7f001c3aU, 0x1c8308c2152397ceU, 0xe62279e407d5032fU, 0xfe120962fca40e0dU,
  0xb7fe7f0032407edU, 0xdf20faeaf1cb4cd8U, 0x680e5bff23812fd8U, 0xd6f71e8e1ec2c4ddU,
  0xb4d5e5280412da40U, 0x9414e1f537dc19bfU, 0xfa54b6f1cabd081eU, 0xd83dfd09002fce0bU,
  0x1427cfc900d1e708U, 0xcf7ffc2f2a1606c6U, 0xfb0def092504c909U, 0xe320c6e9070d0efaU,
  0xe41217ec097f1315U, 0xf1e63ff307d30911U, 0xae2033aef649dd41U, 0xc87fb4c0d773073fU,
  0xd73bd09a0136d633U, 0x8b171fece62b25d6U, 0x4915e107e4c2f010U, 0xe8f100f6ebc6fb08U,
  0xb2d5e7b93101e01fU, 0xce7f6b25f7eced48U, 0x321547f9241e3e1fU, 0xa30bb779287f0b6cU,
  0xed7c514401a8b5a5U, 0xbfcbcc231539538bU, 0xc8ca2bedb5fc221aU, 0x1908d2074505e250U,
  0xf61c29415f33f69bU, 0x3df22fe4eb3aec81U, 0xf7eefa2b1d16a9d6U, 0x154331f825f83efaU,
  0xe91b0a1c0fc9e90bU, 0x16031a460daf7f1aU, 0x85e047151dc5ebb3U, 0x8109d2f72208e134U,
  0xcfd84915fa13e667U, 0xfc17b473f3c5e8f5U, 0xf1af35eff10f11e8U, 0xe0ebd10ec8f815f4U,
  0x60a2734d8020003U, 0x1f0a4b2fe3e07f19U, 0xf333ec7cf666c3c0U, 0x9f48e6febdf6d815U,
  0xfa181c9abb22c3e8U, 0xcc7fd500efd32b9aU, 0xe53a16fff9c4dc5bU, 0x32eee8080ec6df46U,
  0x72b5b222d197fdfU, 0xae6d3f6111708eeU, 0x426bf2a25c4fe08U, 0x7f1b076b2bbc2b0dU,
  0xcafe010c20fa38bcU, 0x43efe231f5e707a6U, 0x5fec3262030787afU, 0xaa34ace9815546cbU,
  0x6bc27b61315f119U, 0x96fe27b815a4ee7bU, 0xd906d7e5051bfe00U, 0x51703d07f0c0be1U,
  0xf81018b7e710fb1eU, 0x1610f3d0012b0035U, 0x2e26ca04f1cef714U, 0xe809d781f503d808U,
  0xafc7003f2e03fed4U, 0xf06011b1440deeeU, 0x12c2f6d9147e7fd4U, 0x51807f6052931e0U,
  0xd13a44fc2c421dddU, 0x13c0dccc1a051bebU, 0xdceaf8eff7122747U, 0xfef1c7eed3de1cf1U,
  0x81db38f95c312003U, 0xfd1348fc05c75334U, 0x7bfbeedc3942ef8aU, 0xd927e9fbcfef00b8U,
  0xe218e8b7e8dfdc21U, 0xea7ff40c09e656e4U, 0xd93cafcc17f61b58U, 0x50ca1c3f7f5fbb55U,
  0xea2501683fede000U, 0x23c5cde3c73617d6U, 0xe72c26e93408e8e9U, 0xfa09facbf2d4e491U,
  0x8113a4e2375e3908U, 0xb0a0bef4ce5ede1U, 0x1c220b23f3050300U, 0xdf06fdefe0f70602U,
  0x2de2151209110c0fU, 0x161c8125edfcda12U, 0xf033d1e0f700d50aU, 0x3010e04a0906ee01U,
  0x2e23cd0222faf9e0U, 0x13eb7feaeae43522U, 0x1e21ed08f421fb1eU, 0x1ffffc47f142b03U,
  0xfa301b1ceb2ce5faU, 0xed0bebf4e8db0930U, 0x51c323a0eafd26b7U, 0xbbbecfc7c32709b7U,
  0xd8e6f6f76d7f061aU, 0xf034f6fb24ffc869U, 0xdb33a5dffde0e127U, 0x1023321f56f22421U,
  0x8546e1377f1975f0U, 0x3edb35ffff2817f6U, 0xdf02053adc598905U, 0xb20f0fd52260d906U,
  0xdd02fe03d05fce44U, 0xfd33e710de7ff907U, 0xc2382aec13e07f19U, 0xf8dda1aeb001f5e7U,
  0x15e740cf095bbdbbU, 0xd1b4f9cf1a09ab3aU, 0xffffe8ce00001f0dU, 0xfffffea700002099U,
  0x1ce20000074bU, 0xa20fffff77cU, 0xffffef010000085eU, 0x1d9300000e84U,
  0xf7200000beaU, 0x5280000231eU, 0xfffff20f00001106U, 0x247500000620U,
  0x1b4700000864U, 0xdcc000007f6U, 0xcdf00000617U, 0xd2cffffff24U,
  0x113c0000069dU, 0x421000000c5U, 0x1e4800001813U, 0xfffff9abfffffd69U,
  0xeb900000fd6U, 0x1c33fffffaf0U, 0x12a80000044bU, 0xfffff70a000001f1U,
  0xfffffc5000002247U, 0xffffedd800002244U, 0x2d27fffff7e2U, 0x2bf9000008bdU,
  0xfffff86000000c12U, 0xffffec20000019e6U, 0x9ba00001ec0U, 0xffffef76ffffebe0U,
  0xffffe9c500001711U, 0xffd0000070aU, 0x49ce154ef3d602dcU, 0xd47f04fea7d91fc8U,
  0xfd81c63ca5cbb50cU, 0xf7b21d1b3061e6bbU, 0x322bdc81e4cdeacfU, 0xa5736fec1de06aeU,
  0x4b7f81aae67f0106U, 0xbeb0001e2bfcbbaU, 0xe6ce1f60f6db7f2dU, 0x85306a81fddeb5c6U,
  0x7fa58145dc43627fU, 0x7fdab47f9550fb36U, 0x3981d58623f77fb6U, 0xfd6bdbc37eba3da4U,
  0xd59ff5813ffd2adbU, 0x130835c530f0cce7U, 0xba152f590950f8e4U, 0xf29c811a45e3c849U,
  0x140aaccf340a60ffU, 0x3c1c2e211ea1c9bdU, 0x81dccdcaf8c20dcfU, 0xfac5e32281e00e9aU,
  0x28d47cdb711dab36U, 0x93d8f2d9f6ee5504U, 0x7fb775c41ab3eea5U, 0x92281db581be7fc6U,
  0x24b9164fb37f5da8U, 0xc9097fc32dd29725U, 0x354807bbfbe994bcU, 0x1817f7f1eb8d3ccU,
  0x997ba1158f04d710U, 0x60f0f444e67f81b9U, 0xe5c3617f7f7f497fU, 0xecac73a935ba3006U,
  0x3ed165db7f221548U, 0xe87f834e81816ebdU, 0x5f717f987f24423eU, 0x7f5dedddcf00eae8U,
  0x9dc9eefa8d827f81U, 0x28ca7f2c7f2df281U, 0xa8436e3213231958U, 0x64c1f97654d1137fU,
  0x2be8268119d21b47U, 0x2733dae110cc2bedU, 0x9dbd2ce1f4f84f7fU, 0xf332afa387e5e8ffU,
  0x6ecc690d1cd9e616U, 0xa165178125d17be0U, 0x3e9f7f35e40114f0U, 0xb3a6c477b755e0b0U,
  0xd398ec28f2f67f9fU, 0xd32d7cba2bac817fU, 0x2b5139f0f811a38U, 0xe15349a54bf02cU,
  0x810af73b6b2ff424U, 0x7ffce202fa68ddf1U, 0xf5816e02163c1749U, 0x7fe2dd321e7f602eU,
  0xe6dd4dc938acbcceU, 0xc50be6a6c6391eadU, 0x26250eb530bed629U, 0x1e870b158f7fab7fU,
  0x24cbd849eaeee7bbU, 0x7b81ef3e50fc0ffaU, 0xb866d0f9ffcae92cU, 0x7258db5d0655741eU,
  0xe01ef0dbb4d7c0fdU, 0xefbeecc40046210eU, 0xb51c1fe5e8b3e4ccU, 0xdba8b3a3081d8147U,
  0x71ea2b0d81192ab2U, 0x92905bce9e223f3U, 0xfffffc16fffff526U, 0xfffffe47fffffb5dU,
  0xffffed61ffffef22U, 0xfffffede00000971U, 0xfffffd38fffffe95U, 0x5d2fffffcdeU,
  0xc7ffffff09U, 0xfffffe9e00000248U, 0xfffff892fffffe00U, 0x11ffffffdeeU,
  0x2d700000407U, 0xfffffcfc00001438U, 0x150000000e4U, 0x685ffffffefU,
  0xffffff26ffffff42U, 0xffffffc1fffffe57U, 0xfffffdb2fffffdf8U, 0xfffffa3300000c97U,
  0x600000d7bU, 0xfffffe5cffffff39U, 0xb300000053eU, 0xd00ffffff8cU,
  0xfffffe5effffffe5U, 0xfffffc7d00000190U, 0xfffffe14000009efU, 0x48fffffff91U,
  0xfffffd600000036fU, 0xfffffed400000101U, 0xffffff3e0000103aU, 0xfffff903fffffa06U,
  0xfffff99e00000416U, 0xfffff7f8000002cfU, 0xcc42d000dce221deU, 0xef5550c0dbecaeffU,
  0x233dbb38c44ac1e9U, 0x40ab8dbe22830beU, 0x8cc8a4163d4209ecU, 0x9cc1fdf5767f8f2U,
  0x6e7130f9fbf47f2dU, 0x14be83b093a0a1dU, 0xcde2acc6b120beb7U, 0x2fe5111f61df7fcU,
  0xe67f3a0af123f776U, 0x39f6d826c71863ceU, 0xde52e2eabb1110dbU, 0x2367b19ffe084117U,
  0x9e0f54f16a02df8U, 0xb0e9062fcdbd344eU, 0xe8e3512ac9d01739U, 0x16ffbce8d5f2e239U,
  0xe7b028b50b693138U, 0xaf01c5bbeca4f534U, 0xc23ecf53d75ff8U, 0x36d3207fe5efa309U,
  0x772825f0401e6a07U, 0xe7105abc5501e5daU, 0x2ffc00fc1c0c590bU, 0xede4420fe1c1e9e1U,
  0xe9bfd215c9f6cec8U, 0x271814f0f71818f7U, 0x5dabc232ed31136U, 0x1e1d0e4efccfe5f7U,
  0x921bf6a2de0506d7U, 0x11287f6db2182dd4U, 0x972abbef551d17bcU, 0xccff8ea236d0159eU,
  0x341cfee2200427d2U, 0xd67fc902c719e80dU, 0x546006339a5e57f4U, 0xe8d9bec9adae0434U,
  0xee0fa6c2ccab6606U, 0x1f8ec7ee704e3ccU, 0xd53cf9f7c3db42a5U, 0xdccd4704f43dcce2U,
  0x10097f08d1f5155fU, 0x28113edae1356cf6U, 0xfbce8ed3c90282caU, 0x3c1fb2b6ea7c2496U,
  0x2930d90fcd1e66c3U, 0x4f91420ba1ac0caU, 0xe726916b2c34c5c5U, 0xf005b5a515f620e7U,
  0xd40c080f1c5ef176U, 0x102541b7f7c309fbU, 0x1c11dfedb700d9f3U, 0x81150403160d1fffU,
  0x5222149f2174440U, 0x3eec8f25cef521a6U, 0x384a24bb45e7227fU, 0xcb20fe3ff7e4fddcU,
  0xf30029dd03105308U, 0x3caef6ff0bf2481aU, 0xdc070c29d0ce3f10U, 0x31092652d3f5ceddU,
  0x39f521d9e5010430U, 0xa0e120be417d053U, 0x30e5d0402730b3b0U, 0x6ecbce7cf3d9bd3U,
  0x45237f14cd149312U, 0x4aab3031071c14dfU, 0xabaab1e1bfa8e43U, 0x2f40ebb10f1522a7U,
  0xf0bce84fce23be0cU, 0x29dd25c6071f120aU, 0x5207dbcd4709241dU, 0x25ee4d1b30fdd930U,
  0xb22ff24907e2c9e7U, 0xd904e3af7fe10a30U, 0x21f4c91d35abf9f8U, 0xe4da11f9dbfd100fU,
  0xfc06fd0acbc300f8U, 0x1af91d1029523f17U, 0x1211cc26fc79c216U, 0x2b1046f80b180f4fU,
  0xfcd52d06022933f5U, 0xf1656de7f0c180aU, 0xebdec8e547e01446U, 0xea11070dd69d3634U,
  0x8fc2ae223cd3717U, 0xddec05c313e00dfbU, 0x20c2bd476450dec0U, 0x54dbe3e444ee201cU,
  0xd6efad105010ccb5U, 0x17f40061d1f660cU, 0x2ff1d32af63efeedU, 0x2908cea9c544090fU,
  0x10d718083669c8ecU, 0xc6ee9ab0b4c238d5U, 0xd1f4f6adb5f4ed1aU, 0xedf1d9f52e1d0df2U,
  0xf40d3af60be91517U, 0xcee0ed090225d530U, 0xefe8dbebbad620b7U, 0x7fd03ff5f2b8225bU,
  0xffdea76e1fe16c0U, 0xc6223643e4fbf5ebU, 0xe53be334e41c10c7U, 0x6e0b611deb1f135U,
  0xf0e5f06c9c5e3fbU, 0x96dd1b06eaf205f6U, 0xf6b6a807ac0e251cU, 0xda16fcd5dc3c1cd1U,
  0xb2f8b023051df7dbU, 0xf06150f812dff3cU, 0xd1fa0e24d724a6U, 0x3345c0fe2fca0345U,
  0xdfa0a2664c5555bU, 0x90010fcb000db3dcU, 0x6d0fe347623c733U, 0x35e36c38232908f1U,
  0xcac101b78181f4d4U, 0xcf36170e172403f3U, 0xdb6cd9ee1fce39c8U, 0xe359262849c9e1eeU,
  0x6ce31390abaac0aU, 0x98ff0c0fdbaf39e8U, 0x572761f2ff3a5e10U, 0xd0ae30939b803f0U,
  0x477f0a9dff0a37e5U, 0xdcd53e04bfff960fU, 0x81f32115d3251a87U, 0x42e4eb631d260ab8U,
  0x160aed23fd25b9ebU, 0x4b3d25d6f7dedbdeU, 0x81ab2115152d306U, 0x30f40fc8321026b9U,
  0xf9d8a075ec20e1deU, 0x25da0014c909afe1U, 0xeadaec08d2055afbU, 0xffeefdfb3a3401f3U,
  0x3c1eb04f81dd53dU, 0x2bd97f42fcc5f8f8U, 0x1ae1d0fa05fc0220U, 0x3102daea05cd170fU,
  0xe711deed28e8031cU, 0x28f516c1fcd2d2d2U, 0x11f8e818dbff1e3cU, 0xb9e0fb1d1ce5ed1eU,
  0x3d10e01d0ce1212fU, 0x64065c2f19252505U, 0x270ef29cf3de34dbU, 0xf8f62fcde3ddfef4U,
  0x7f2533ddf360ff00U, 0xa911fa0c0f101807U, 0x1811870333b7cc14U, 0xe181f6b736b5e8ecU,
  0x90f2f42613b6dd05U, 0xc0d9e9baeb115984U, 0x120b00210c5b7007U, 0xf4231aeb3a46273dU,
  0xcf26eaec16d0fa32U, 0x7c3df4c4f11b2101U, 0x24f00fcf1df7c2f9U, 0xf613dd2fd54ceef6U,
  0x46c2ed232005b2deU, 0x24d4e4090beee145U, 0xf2e4035ec5990d7fU, 0xcde30a0e2b02c326U,
  0xf7fac7ef0e1de014U, 0x3204ccc9e8e327c3U, 0xef13bafd14f00e2aU, 0xf1b9de2e0128d8U,
  0xced513eb00dd212cU, 0xdbdef47f00e9d925U, 0xdb0c60cffb0c21d0U, 0xfe280806feae2df5U,
  0xc54fe720f9ce1001U, 0x7e31dfcf1fb2705U, 0x3d7f8db1e2e2405U, 0x777fec122713fe13U,
  0x1a34cd442b7144c1U, 0x28130dfc201ed602U, 0x4fc0f62e4ceed641U, 0x6330e012510fc19U,
  0x5e6d423ed00ecb1U, 0xb2dcdfdf0df3e609U, 0xd7f40d3c2a4f2b1cU, 0xabac3e8748a1222eU,
  0xfaf8ef38f4eba1d9U, 0xc9f9f7d61907d240U, 0x18cbdee0de369ad8U, 0xf301b7ec31cbf0cbU,
  0xab602b810b1a0d02U, 0x25f511c3e482191cU, 0xe92df23a0114dcf6U, 0x29010015f92b2538U,
  0xeeceeaee476566d6U, 0x5e61a18267fe834U, 0x1aeefeeb212a03f0U, 0xf11d143401fe113fU,
  0x3f0d1dda252ecf2cU, 0xd5d6daeecd2cf103U, 0xe16c4318be5ca92aU, 0x3bdce2db83ad456fU,
  0x111f3a6cec34ea00U, 0x2a8db0d0b574a5dU, 0x5a20b6ce014fd3e5U, 0xeefe74d8be98e9bcU,
  0x3c9cefde889ed681U, 0x50409e4c85ee0d5fU, 0x322ad0dd25152becU, 0x15e637e3defaf634U,
  0xe423082f20e60bc9U, 0x27dff4da7f1b4510U, 0x36d9e6fcd006ddd7U, 0x18e6cefede124bcbU,
  0x1a1621fe2010fbddU, 0xf9303d1ce42238aaU, 0xf1091abcdb0b0fceU, 0x1bf3dac7eb03e9cfU,
  0x583831dc0dd8bfd9U, 0x1d318a08f1edfee3U, 0xdbced80d1f500134U, 0xa2f7f2e5cd147f27U,
  0x84a9cb1ce937fde6U, 0xd6fb06d4c20e02e1U, 0x52cb0d14f67fc3deU, 0x7ce2f870630a2107U,
  0xc0ffdc600146dd5U, 0x8cd11d0502d83442U, 0xf517ea090109f838U, 0xdf72bff53acd1710U,
  0x3300803303d221cU, 0xca62afd5cce2f114U, 0xe53532ee3af43deeU, 0xbc1bedd83710fbc4U,
  0x4d231613a4c2efe7U, 0x3abd62219edf01e7U, 0xdb2bd60007fe4716U, 0xea2fc8f1d92529e8U,
  0xcdfa323f7f1c310aU, 0xcd12fb18f517e055U, 0xfb16c4eb221109f2U, 0x220eab172501da01U,
  0x7bfbf8274d39c2ceU, 0xfb2216023433c52cU, 0xffe24e716e8f24aU, 0xea0d1ae9f8169fe4U,
  0x39e81ce51fa4ecf5U, 0xda2892f2fcfcdb81U, 0xfe0432c54e04c91bU, 0xbde9e0dd1ce816adU,
  0x40ddd30918f9d3b7U, 0x10341511fc112bf9U, 0xd97f9dc3c117dcbdU, 0x3afcdcddfe3c2500U,
  0x10f7fc26f5e04315U, 0xe304105ee4fa02b3U, 0x57e681d360c652a2U, 0xe3a188ac1a3c6706U,
  0x281911afffeb30e6U, 0xc42ada49b4e1df40U, 0x5d34fef765ec59f9U, 0x34e9271404010019U,
  0xec249594639a36f9U, 0x55194242eb6ef2aeU, 0x181947341aef6e4bU, 0x23f0c5ef0e1cfc58U,
  0x11a2b2def31da62U, 0xb8ff22de14a4e61cU, 0xe1d9f2fe38c713eeU, 0xf4f7404203f0e281U,
  0x544fb9421c13eebU, 0xba16c9ad1a303edfU, 0x221620f2fe7f0cecU, 0xf71ade02fc4943e6U,
  0x2bd60d22212739e0U, 0x130b3c46f2680213U, 0xdcf521c42b37c5eeU, 0x21fadaca1bfdc2f8U,
  0x6c0825fc16feb117U, 0x130a33a646c9e01bU, 0x91337d6d7e6172bU, 0x7c282b04f7daedd9U,
  0xcc9eb0d4002d5f8U, 0xf862483015f9e604U, 0xe940ed81e18838f1U, 0x262a062aede5cafaU,
  0xc7e9361bfdba13c9U, 0xb2d1c0febfe65983U, 0x2eedbf0ee627dfU, 0x8fe18171957083aU,
  0x150ba8d804d7224bU, 0x57e1220e45cdf8cfU, 0xe7275820baead9e5U, 0xc122af021e114b03U,
  0xf22edeb19791d7fU, 0xaee5c2f5341a15edU, 0x4cd0788dedb36d0U, 0xf42ec5cd2c51a3c6U,
  0x150318dcdc1916fcU, 0x1cd6b4db8dd0daU, 0xbde81d73e4b37fb6U, 0x2bdff00523a559efU,
  0xd723180f5faf4800U, 0x2664fdc3dc4a56f9U, 0xbdcfb67bfddeecf2U, 0xf4c7c2dc7f9b2df1U,
  0x3094dcb4dc8ce3b6U, 0x166d3e050dece224U, 0xcadd9a0acc5edfceU, 0xcdd683dc16b93236U,
  0x6c569d9de325038U, 0x2e0fda13220dd5edU, 0xee1f6d97fa4e5ebU, 0x603fbbd45e97cd7U,
  0xdc314e11fe0afbf5U, 0xe41900f4cae5ec29U, 0xee292e23f2f203f5U, 0xa5ff23001dfdb510U,
  0x51a36ff08dfa715U, 0x1edc21efd0f826e1U, 0xb153ff7f2343b806U, 0xaec7fde2ba1b1e26U,
  0x291ada9008d525ccU, 0xb8c4fe55011eb2f3U, 0xdbf8c0b7ba07004aU, 0xa5ccd3c7e379fb47U,
  0xd8f48df26fe43c33U, 0xba1bfbcbb4480f10U, 0x140aa6f335eef9adU, 0x6b1a1016d1fbc30eU,
  0xcbf3b9da5402ed00U, 0x6f6bd5204fd3e41U, 0x1beb37ec031a3539U, 0xe71c547fbdfb1c49U,
  0x452d37d90a02f13bU, 0xd0ee140532f52507U, 0xf21ef6001cf129feU, 0xecee50fe1de5e90eU,
  0xf7bbd9fd3d02c751U, 0xfff5d10e21f7e719U, 0x4416322fceec22f0U, 0xef32277f0fdffc51U,
  0x10f7facc02ed3746U, 0xf02640f393341504U, 0xc1e1316e5f82517U, 0x15282c7f2e02fdd5U,
  0xf7a5d2f5dd20062bU, 0x301af0f7f3c5f03aU, 0x6c5f9045b2e116aU, 0x21d14701d9cf9940U,
  0xeefa314a4324ed01U, 0x19ff0df20ae9ca2fU, 0xd7fe0243f1ef0e15U, 0xfdcbe4f41afccc03U,
  0x1c028d7ff58e212U, 0xf9eae93cb9103ae3U, 0x1c0e08df281279deU, 0xe22f44deef0a3634U,
  0xf57ff31300ba950cU, 0x26d7b20ce12333e6U, 0x18bf81e0eccdacdfU, 0xfed52d32f438ca0fU,
  0x7f50b1308fafbf8U, 0x1d0216033f1025e0U, 0xfcfbe4c2c622f8feU, 0x1f72f1cc24600fdU,
  0xce930e7d033fc1cU, 0xfee5e70a36f2f41aU, 0x2405e2d0523cf6ccU, 0x22dee6f47fcc04daU,
  0xe6491ff90703e6e1U, 0xff361e9c1116f721U, 0x1131dadccfd3f71cU, 0x10ea03e3ee21d40bU,
  0x100134cad3fd5ef4U, 0x2204365a41cf0194U, 0xf5eb01e93fdedf18U, 0xe7dccedb3f22ceffU,
  0xbaf477fbd47f01c7U, 0xe318dff538010928U, 0x33ef5be846d3def4U, 0xf836e32f24a25dacU,
  0x2301e20c5149f8eeU, 0xee71815d4fb2ff4U, 0x901221c226b8ef22U, 0xb31505bc0c510de0U,
  0xfbea5b00dc412d40U, 0xcfbe9f4d6f1abe6U, 0xe4051605ce78ff03U, 0x2d44bcee037fdad3U,
  0xee4f71f23c9e8ebU, 0x1e82688ef17c113U, 0xf45100192732224aU, 0xf11d1734480549e2U,
  0xe8d6dee8232eae48U, 0xf65ad6ca345d0908U, 0x5c3c18cb86fa1bddU, 0xf54abbfae8b9c653U,
  0x6b629c460dc54d13U, 0x667fcaf8def5f8ebU, 0x2602f52b6704cdf7U, 0x45f7ef0af412ddc8U,
  0xddf1f4f7e8eaba1fU, 0xfbfef041cff6f1d5U, 0x145eeb2ce9d1490dU, 0xf87fccf81b20fc2eU,
  0xd438c53a14faf508U, 0x21e041e0df40219U, 0xf030662234d9c33dU, 0x28cbb0ef2fb2ee14U,
  0x3fecf4c50d2f7b2U, 0xd2db47499e664404U, 0xdf9e20d742f8f0beU, 0x97f3b3cfd20b1a0U,
  0xe445433ed6ea1cfcU, 0x1cf84ffb1acb7dccU, 0xf9cee8104d7eccdbU, 0x1c181dc1688afa98U,
  0xa2bff1e105b62fcfU, 0xd37828bd4c40ed35U, 0xff29a310b702f88dU, 0xeb7881ef72d25155U,
  0x1b3594c720ec0cf4U, 0xd238c425c69c9953U, 0xb61e17bccef3cbedU, 0xe022db4125febbefU,
  0x4fa7423014d9ebe9U, 0x4efc2029bc322cefU, 0x48ddd2ea34fd9ffdU, 0x25ef1ab50df9c7eaU,
  0x25b9198112312113U, 0xa1e5c03348cc130bU, 0xd8efc2d01f190aedU, 0x23190ec31027f3e8U,
  0x16f7332623d50f4dU, 0x4e36b1567d3d717U, 0xeb1b6015da18d700U, 0x3c46e4ee301f7ff6U,
  0xeefdde3409c10223U, 0x405c9f2b21bd5d4U, 0xfa24e2da6d3e06bdU, 0x5b676668eabc444eU,
  0xa9a1e8f102d77fd9U, 0x2f03f0ca0c4f155aU, 0x4b06f8e36b03c712U, 0x102396446b00dccdU,
  0x52fe2d4b035efaf2U, 0x3e0b2c3852b1f7c4U, 0xb220e4f2d5ef11aeU, 0x39c01c2103f70cfeU,
  0x428944b93d08fc22U, 0xd745057fe333ede1U, 0x272f22a8c6dde9e5U, 0xc436dc4002bc0437U,
  0xf02dee08b8ed5a1cU, 0x38edcefff5b9c89eU, 0xf02fc0e12261403U, 0xe9f592032ed5f218U,
  0xa21756f964b0143fU, 0x42427fe05e413U, 0x1087ff1df0f2727U, 0x2f2c46002104f9beU,
  0xf83f005bf710fa26U, 0x1b2d2303edd626d4U, 0x211ca7eefa56d1c8U, 0x2048fdeee6b1c2aeU,
  0xe7eef3261aeb0928U, 0x7f00f8f35625e4e8U, 0xf2e11f17322ee550U, 0x9ea501e0ce9c02eU,
  0x42f7c1243cc5fcc9U, 0xdb0318f8e0383d24U, 0xfffffcacffffe770U, 0xfffff06b000002f9U,
  0x1122fffffc11U, 0xffffe3a900000db9U, 0xffffec5cfffffdbcU, 0x1667ffffd7b9U,
  0x278000000081U, 0xfffffbb2fffffe58U, 0xfffffd5e00000a47U, 0xffffef29fffff842U,
  0x1507000007d3U, 0x2a9fffffda2eU, 0x188dfffff025U, 0x21a40000250cU,
  0xffffdfd8ffffd58dU, 0x6bb00001c63U, 0x1640000067eU, 0x3bfafffffb7bU,
  0xfffff95cffffe901U, 0x430fffffdeeU, 0xfffff57e00002c0fU, 0xffffe239ffffe77aU,
  0x18e8ffffdcf4U, 0xffffe70800000104U, 0xffffe0ae00000a2aU, 0xbc4ffffea19U,
  0x4deffffdec7U, 0x1ce5ffffd0a4U, 0xffffe400fffffd0dU, 0xe48e521bffffeed8U,
  0x81fb1ed5feb9454dU, 0x27bc817f387fb913U, 0x299b3fa60a234e61U, 0xcdc837a0d1cb346fU,
  0x8be7c64542a831e5U, 0x3f4c0d15445a4085U, 0x4dd43923811afc46U, 0xfef5bd7f5f508110U,
  0x6bc611c365d0815fU, 0x81fe7f444e7781c3U, 0x4a81c0626a3f814bU, 0x407886669dc4c628U,
  0x2c317f51b4a0bfa3U, 0x43e628096f7b5fc8U, 0x2d2a81b9002adc5cU, 0xd77f1ceb583bc8daU,
  0x81fa789b351385b3U, 0x2e1e0fcb4ad9cd71U, 0x33f2e12e0864a0d9U, 0x2015d0bbde1b7fd6U,
  0x2305f1981140349U, 0xf17f56f308314c15U, 0xdf49a15d96557bc7U, 0x99d04f7f64c5f5b5U,
  0xc97fd3725d574d18U, 0xa04181a0fd636e53U, 0xd9af4452c25a9abdU, 0x7c3d6567074fd33cU,
  0xb81437fe615516daU, 0x181417f69f63b7fU, 0xe4381428acf7f41U, 0x7e6cfb7f7e9a5268U,
  0xa7a57f7f7fa1729fU, 0x6c817f81a3817f06U, 0x7f037fba4981977fU, 0x317f7f7f367f1a7fU,
  0x39bcea0b5012027fU, 0x43abfd6a7f05b5f2U, 0x327f997d53e999d1U, 0x163fb718b84761b1U,
  0x9dbeae482fbb815bU, 0xc74fa9a4514fc74fU, 0x7e611e9b4d33e741U, 0x5a3f48815d451f29U,
  0x10ce7fe81121ec43U, 0x30ed3648d4f8f9edU, 0x50ed7f672be818d3U, 0x14afd315350c3c0aU,
  0xd62623e72baa92fcU, 0x321005aa2a7f43dfU, 0xdb360c5a73dba35dU, 0xaaf9287153124bb0U,
  0xf4c4d3c02c2c417aU, 0x3f9b2a5f9c633001U, 0xf85f2c4e1d62d179U, 0xcf42af81ce46a1cfU,
  0x964c547faf814c10U, 0x5b740d8139265d57U, 0x8e4afb2903ad4307U, 0xa730283bf295b118U,
  0x4fdc202ae9cdd1f3U, 0x300df9e34218973aU, 0xbf9b46f7f49e4fe8U, 0x2dc4ce2ff6be3789U,
  0xf21ab6435fc23b3cU, 0x7fd631c6061c3cU, 0xffffead0ffffffafU, 0xfffff7e20000170cU,
  0xfffff1dfffffff3eU, 0xffffee8400003497U, 0xfffff077fffffcbaU, 0x2eb40000069bU,
  0x30acfffff15dU, 0xfffff70cfffff22eU, 0x74fffff2d3U, 0xfffffb3500003660U,
  0x15dfffff8eaU, 0xfffff5faffffde3aU, 0xffffe83800002b58U, 0xffffeef300002808U,
  0xfffff165fffffe6bU, 0x22e000001fa5U, 0xffffefab0000091eU, 0x2e7200001fabU,
  0xfffff15800003550U, 0xfffff9fa00000bd1U, 0x250affffef4cU, 0xffffff3000002782U,
  0xffffe3e2fffffc57U, 0xfffff6c1fffffbabU, 0x565fffff11fU, 0xfffffffcfffffa2bU,
  0xfffff7ad0000001dU, 0xffffffaefffffdf0U, 0xfffffb15000000b8U, 0x702fdfb000006f3U,
  0xe00af8fef313f739U, 0xd719190011fa0421U, 0x7f2cf227082afa59U, 0xd2e5df4ee7e3f3f6U,
  0xc734e5f73904e627U, 0x4c80f0628f3e40fU, 0x89faed082f06df00U, 0xe20437fdbbc7ff57U,
  0x29eaeaaa38ea0832U, 0x19fcfa9be94156dcU, 0xbfce2f7fa0f040cU, 0xd12724425c00faf0U,
  0x6a1425532c1e492eU, 0x8114efe50d0d38dbU, 0xd916e24a31cd13f6U, 0xc5312b3ce94334f6U,
  0x3fdb7f262cfabbU, 0x6ef04fb9d42ece38U, 0x5fbbb64c090fe5e1U, 0x16fed80b0162f22aU,
  0x23b2195709de1a12U, 0x49eff43d14c1fd36U, 0xa267f2d501abecbU, 0xf6e08a2a07a81223U,
  0xc8fffce839c62900U, 0xdbb24c2ae65be1cfU, 0x1ad34feef21edb20U, 0x5de61dd73835e6c4U,
  0x2743080cfa0bfe1bU, 0xd7009353fac3c68aU, 0xddf9077ab516d5d9U, 0x620d1a10f12eda81U,
  0xf5a6df41d3c744dbU, 0x3d05f92bc607f416U, 0x392a97ecd5e2de0bU, 0xd2e20213f70af2dbU,
  0x2c23ea260e17161eU, 0xf2e8fb22e403f5edU, 0x6d917212400fafbU, 0x310df6005bfd1aecU,
  0x48122fed830fb19U, 0xfcf80e1f93beea16U, 0x1de84d01a72c10eeU, 0x15e4e5fbc70a12b7U,
  0x57e9bfb80207fec2U, 0xf4a221f70010e3e9U, 0xc0d9d5ccf52d250bU, 0x81e4e91b0af74acfU,
  0xcd32f2db15c01c19U, 0x2dfedeec4b21c7beU, 0xf317f2f3fd2df331U, 0x6d1bf200a3f89ef3U,
  0xeedda6e1dc81f73bU, 0xc0e2060617e3a426U, 0x3071492c3a41175dU, 0xe0f825f7edd52e72U,
  0x38a1f20309f7eed6U, 0x2ccaf1f71beee4caU, 0xa73cf5dce0dbf9d3U, 0xef50cf00ac0001cU,
  0xf004bccde0241ac4U, 0xe3accdcdd7120999U, 0x2523de1436e36600U, 0xdcc3e91d3afa6081U,
  0x13e9f767133dd403U, 0xfce610f96831d90cU, 0xf242c1a0cf8d5feU, 0x41f401f2ee3f1e03U,
  0x63bccad4fd0bf51cU, 0xfd291bc4d2b30ccdU, 0x81ec18cb504adad9U, 0xeae00e01ff433339U,
  0x20c2d520dff6de1bU, 0x337cc64a2503ed19U, 0xe573040d1046c1f3U, 0x1ff2daffcb3a40f4U,
  0xbb5d8ddc4c0fc3cdU, 0xd4e67f1eb7158fbeU, 0xcdf7bed2e9dcb918U, 0x172fda093908525eU,
  0x43ff16052838e003U, 0x308136515eebbdeaU, 0x3cb8160ebae12fe8U, 0x59c7483ad8487a11U,
  0x9f992600fa55d8deU, 0x1602c3290ed1fa9aU, 0x71df33dd25c8665dU, 0xc35fb881503b100U,
  0xdfb4ccbfdd000e70U, 0xef2a07d7f354dee4U, 0x4ddf61b2c33fab2U, 0x45d7bb9fc641e1e9U,
  0x31122224fbf6ffe2U, 0x7f0245f0b59ea240U, 0x1468de03d269b31U, 0x4802bfd9ece6035bU,
  0x4af7404b44e2a3f1U, 0x3a3a3d284ea5bfe3U, 0xf546d5101022daU, 0x1fefc1aafda3dbeeU,
  0xfcd2f5e72536fa51U, 0xba1c7f1c00f6dc0eU, 0xbb01543eecd4b9e9U, 0x19d900f91ee7f2efU,
  0xe5e0fc05d3271308U, 0xfef221e90b187ff2U, 0x950638efd8519704U, 0xe5dc0b19fa062cf3U,
  0xe7faf6d6fa06e6f6U, 0xf8f4df0e14e6df0eU, 0xef7f03e83beddf0aU, 0xead4240f0e29db41U,
  0x18ede4e90113e4e9U, 0x280de39bf0450c4aU, 0x28dd09d5e80d3443U, 0x2d8f6f0f712b902U,
  0xd60036291ef62d14U, 0xe7e3f4d90be9d00cU, 0xca26421be2f7c14fU, 0x2f4723f9121b1af8U,
  0xfee404ff301b231cU, 0xdeacc31fa105e3ecU, 0xbe32e0c57fe4ee29U, 0x71818f8df4099ebU,
  0x4c33f3dfecc71f14U, 0xdfb5f00431f2f40aU, 0x3cf9335eecf83900U, 0xb4d2361691b523c9U,
  0xc700f9837f28bd13U, 0xc7c10309d119d0d2U, 0xa6380407ffce13e1U, 0xe212c0f31cd1ab08U,
  0x26491f47409de9fcU, 0x33d4b0f014de04f1U, 0xe1004dbe30200d0U, 0xf20481d9ff0ee2f9U,
  0xb0120cf2ed168bffU, 0xc310d9d8cfa729dfU, 0xdd3ef72418c42b62U, 0xe731ddf6022703bbU,
  0xedc309e2d5f82cf6U, 0xb4b7e605f01dbe01U, 0x24d7d997ef4beec9U, 0xec071ccecde703b9U,
  0xd9fdc15ee1dd0f0aU, 0x42dd26155cd60a2cU, 0x487f480c13efbe31U, 0xf2241500d8f0f5b9U,
  0xd1ad700f30fc310U, 0x1be9ea1d092df52dU, 0xdfb2017491b0509U, 0x40d7f30e512e6f6U,
  0xfbd0e10e1071d67U, 0x16ede7edebfee603U, 0xf410fd5ea34d04deU, 0x2881c4be4e0af8c8U,
  0x1d6965dca65903c2U, 0x67d82a29f117b2d7U, 0xd90c291420d6fd48U, 0x30ed26050ccc0006U,
  0x28ec5a2f06eeed87U, 0x9ddbeb8f8f500b0U, 0xaff0bebfb517dcdbU, 0x282afd2eb054422cU,
  0xc43be4eeb53427f7U, 0x510bffd11a24bd65U, 0x26477ff85ccffe40U, 0xc3c2e0e4eb0c0de2U,
  0x12d2f42102d4e91eU, 0xc510fbb82a91502dU, 0x41fcbf191bb23abdU, 0x2dfe4eebaece423U,
  0x5571415594fe2f7U, 0xfca512e8ff662426U, 0xf40410f91e315005U, 0xbf45aa1081fcc307U,
  0xd3620df3ffe73eccU, 0xb06b91011b4041cU, 0xd9eb09b093d1f004U, 0xafc360fb34e1e0f3U,
  0x8ea0fffbd13200bU, 0xf1164b32bbac5aU, 0xf3e60ef5ff37d50fU, 0x1d99eeeb2708007fU,
  0x11f991fa7af62423U, 0xdd21ede35ef4f5deU, 0x2163fd10a1d100ffU, 0x2240e1e85232c231U,
  0x1bc30bcd7f14dcU, 0x2f3ffcd3e124a2f7U, 0xc4fa6cc44be6b6efU, 0xcced0709f6e31628U,
  0xcccbd91d17f30933U, 0x2bf7324cd52700b5U, 0xc2d25fc03e941d6U, 0x85f1a108f0fbd323U,
  0x1df34d0a38810cc8U, 0x3817dff0ffb3fdd4U, 0xe200ef1b9c21f6b3U, 0x16d6d401fe2a3ff9U,
  0xbc25211508f520ceU, 0x1eb1f00d2ece719U, 0xf72206ace420e011U, 0xfb60b1accb629feU,
  0xd5f407a0150a4ce8U, 0xfeee7f07c640cfdbU, 0x50ed1ec157e92e1aU, 0x1852791a1d05d38cU,
  0xe9f5e8dbfab6db27U, 0x40307f68e32d005U, 0xe8edb6fbe702f3d4U, 0x45dde3fb58a6d0a4U,
  0xfb917fe3ee1ce6e4U, 0x4ecb4ff549f91fffU, 0x18d1e82b1c018f18U, 0xe725db5aeff210cfU,
  0x2621cfcbe313f6ddU, 0xf553fbe606c0e1fcU, 0x25dc96d21c8189ddU, 0x40bdc44c4bcd23f2U,
  0x4958efea77cdd600U, 0xc1fe05f70d16f953U, 0xfcf1d9e6e502ef05U, 0x9afe421e1241a23U,
  0xe5e01ef8d7d7d345U, 0xd97ff1293a0c4c16U, 0xe3360403daf41c03U, 0x1a123f00bb31f63cU,
  0x4675e1092ff612caU, 0xd811e07f92c3947U, 0xe056f5befc03cfedU, 0xba2d0421f641d9a3U,
  0x1bb7f4b2cf82f952U, 0xe58c934d105eeafU, 0xd9d6e80a95154a93U, 0x1326def425cc3cf3U,
  0xa7011b192e9a1c75U, 0x1dfbed99f562f4ecU, 0x931f5c444ea03f4U, 0x17d97406cd114c4bU,
  0xd6d4f9ea1c8123daU, 0xf92b211dea169e07U, 0x14f728f8cd2b0aeeU, 0xd0c7bd031031ed4eU,
  0xc4b6e80f12b5e12fU, 0x417510f70a23c770U, 0x7abcd45b30df2481U, 0x2b42a10839eb05ceU,
  0xa9003010fdd6001cU, 0x42a704a5d54751f4U, 0x52b8f8630cb8e5faU, 0x8e4e41530f93bd2U,
  0x6b5827edee785bd6U, 0xae3ddfd3b6c6c1dbU, 0x9306f2ef221610U, 0x7d0b58ae91e6ec2eU,
  0xe9caeb7feff04b11U, 0x1cec241cd9254410U, 0x8aca709c17f570eU, 0xa1cf131bf5aadae6U,
  0x3ec591010e08bd02U, 0x8400273a7fe44d6U, 0x16282ad23f95fdeeU, 0xf6fc4fc660f7fa01U,
  0x322710f903d2bbe3U, 0xe5dcadf6f0fa10f9U, 0xc84d3526eaf21808U, 0x12df02e0cde63aceU,
  0xcae5cd38c8e3e3efU, 0x25d9ccdce2ea0006U, 0x13f1111aeec89401U, 0x267ff1d00802f8a9U,
  0x4bde29d2df17090bU, 0x7fcfd23fcc8ffccU, 0x11ea39e9bbdc1334U, 0xb67fc5f32ada5d16U,
  0x23d70ecec0dda529U, 0xfeef2bffc14ce23U, 0xdcb7ffea3af2d8baU, 0xe19e4d9cd2c1893U,
  0xbf070c0e06f6ea25U, 0xa2a0ddfef09f934U, 0xf907fd020633f232U, 0xe2e91df3e8e0cf7fU,
  0x5d3e8f220fae1e5U, 0xfde4ed27fcfaf61cU, 0x4102f4ff1c012e22U, 0x3d4a5a122e0a27eeU,
  0xdbd764201ce2600aU, 0x22dc20f765e1de4bU, 0xde03011c0dd844f8U, 0x193032221ce721f9U,
  0x11811720392a111aU, 0x4d8000cffff4af2U, 0x318b33e09d019f8U, 0x12f62dc6e202decfU,
  0x2081f6d7e22ffa19U, 0xb02019a6e75cf73dU, 0x12e0fd07aaea15f7U, 0x2807fe2ceb08e819U,
  0xcf01d4e0c505fef1U, 0xf116fb053ae928deU, 0xafae72bdcd7ddacU, 0xadc2d5781c32c6e1U,
  0xb8d7edc400e3c021U, 0xf5e0e9cfe7e6a8c6U, 0x50dfe8bddacbf47fU, 0xa52940f60905d3ceU,
  0x2b181025ef0c07f2U, 0xce270e050d541934U, 0x123eb03de0abbeeU, 0x2fd7e91d02bb2ef8U,
  0xe7d0f6ac11f6f115U, 0xed0ff03507e5f914U, 0x221004e8e106c512U, 0x1ddd05002bc910d1U,
  0x32ed1c09430b217fU, 0xecd3e6d9c4e47f08U, 0xb5f21deffa12f4ddU, 0xf817f416d6f7d0d8U,
  0xddf511c6ed12fac2U, 0x174f3d34a4c7ed2cU, 0xb9f822c900f8f8d6U, 0x11052201eb1936f9U,
  0xba05fd26eaf6e274U, 0x51280c26deff811fU, 0xf6fd2ee7080e35eeU, 0xc7ead9d122dcd91cU,
  0xda0106fe1a14fde1U, 0xf33b97e9eedef305U, 0xcd3eb50bf3d10732U, 0x26f105482de1034dU,
  0x1c3209def8fa162aU, 0xe1133b03fbeff4d5U, 0xe32e1deefea1e3e5U, 0xf1c0f02e40df7cdU,
  0xf12ae4fc2635f60eU, 0x10fce4ac7f03073cU, 0x5de131b2dff13e5U, 0x81d503e407d91dc4U,
  0x4d529f718ed172bU, 0xbb00ead929e9a5bdU, 0xf2020cb712119cb6U, 0xd3b0d800c1d917deU,
  0xdb02087ba01ff4bcU, 0xea571a65e0b3c815U, 0xcb812601ee130e1eU, 0xe509b110c292985U,
  0x440bf54317edaf08U, 0x5dfb1e81ffa5aebU, 0x46d0f2ef3eede6d9U, 0x3b981cdcdb03c666U,
  0xb9d5de585ab30b59U, 0xcb04d3d012df0d37U, 0xf7216e242e7ff6f4U, 0x41dcf60c03dde203U,
  0x429d33152b44e70fU, 0xf3fdde2ab5f96cffU, 0x235fecf43094d01U, 0x242527dbfb421e0dU,
  0x4b22bbee0af01daaU, 0xf8ccb422f62b2222U, 0xefe03f1123c6fbc3U, 0xf3c5b7e9120adbe4U,
  0xecec0e03f4f4d3b2U, 0xe0de93cfac0ffba9U, 0x3d810c51fbd406bbU, 0x45ea0d14d406d2d6U,
  0x7ff3d2f12521e205U, 0x1977470d5204d81eU, 0xe0d2fefafddd28f4U, 0xeee583cddaf9f4cdU,
  0x59242c1901090d03U, 0xb3d9f2f716e6c9faU, 0xf4582026fe0b79faU, 0xd1fa5f12ef8dbceeU,
  0xeee4001ce5694842U, 0x12f4f3ff0614001eU, 0xf8ec240baaf5cdd0U, 0x7c101db307f8dc6U,
  0x3909f8d91caa04f2U, 0xf52006312e100d08U, 0x13e80a17cd00d704U, 0xecf301acfcda142bU,
  0x70177031d0ee0cfU, 0xbfe11522031ca50fU, 0x3719f721f549ddc5U, 0x193149dbb9cb2e2dU,
  0x7ffb161757d7fbb8U, 0xf568b5d6fb2c062dU, 0xcf08f704ffa8077eU, 0x3d1df2fdde0c4bebU,
  0xc1e63eef180eec41U, 0xef23e53d1f162220U, 0xe8fedf28be0135ceU, 0xd9effcede9090bafU,
  0xe352c8ccfe7fe8feU, 0xceb372ffec20fU, 0xfaf7fceefc0d0002U, 0xdfbff00f106e703U,
  0xfbd1e614fefaf910U, 0xf50a09e8fbfa0ef6U, 0xf101e40afa0981feU, 0xfd13f4051600fffaU,
  0xefdff8fe0202e300U, 0xccf3b530aefb1d0dU, 0x91cbd16f3c61fd8U, 0xe70d2cc7cc22d3efU,
  0xe02505e3279e12ffU, 0x4199e0218190310U, 0xa15f5ffc0db3b81U, 0x5dae718fe1be7e8U,
  0x8c8e4c115e07edfU, 0xff01c608d5edd0f1U, 0x5f12e4ac19d65e1aU, 0xa3fee39581b84d2cU,
  0xfe8c30ef2f6b8a2U, 0xdbbbd1e3310730beU, 0xfbf4bde26655b20bU, 0x56db2d440a52a7e7U,
  0xecf0ec12f8f301ebU, 0x10d72bd5fa092f54U, 0x411208c57f0719fdU, 0xd427dac517463fa1U,
  0xd8fa173dccc84161U, 0xddfa0c38fd01d8bcU, 0xceeff1cce5d04113U, 0xf2dcfbe4b56e00c8U,
  0xeb2cbfe196283da2U, 0x15dd049c40f32c15U, 0x1e119ee938c2202cU, 0x1dbebff7f170ecbU,
  0xa507edc1e303eef5U, 0xa10817cb13e4211fU, 0x2bfaf309fc09e92eU, 0xef78c913da9dbc88U,
  0x313c2709d04d0079U, 0xd9ee4e1b000b8d17U, 0x2b22072ef5e48e06U, 0xbdc385aea33bf228U,
  0x95124413bd5dcb0cU, 0xb426d00b7d81c507U, 0xf0c81e022210fd3bU, 0xa03af47092a0325U,
  0xa7f60628f12de2b3U, 0xebf4f4e0259115ffU, 0xb25dcc38106e7c1U, 0xa8090b08d9dde21dU,
  0xeee9dd09221a00d9U, 0x442cf1e0fa19df24U, 0x8dbe6f5ebf7c2f2U, 0xee19ecdafdfad2eeU,
  0x38eadc4f1515ee15U, 0x7f9c34fe40042116U, 0xfacc4d24495bfc32U, 0xd7dc0fe481c20415U,
  0x17e3290ad71eed55U, 0xe0b7f537e7fffd1cU, 0x1bd201e2f3edf6fbU, 0x7fce8100339caf6U,
  0x541bcdccfde7b443U, 0xe1f431f5080abbefU, 0xc94637ea81081ebaU, 0xfb000eced82a3c3aU,
  0xf97ffb0b0d5b29eeU, 0xd3bb25e111f306eeU, 0xd908c8ecff1b330cU, 0xfdac9e78d0f2deaU,
  0x203de10d1cd10b3aU, 0x2caeb100e21cfefU, 0x42155cf7e8d816deU, 0xefd31e3541fcece2U,
  0x160f21d4c7be05f7U, 0x7fd3bfc4f6d30507U, 0xd5891f243bbe0d9bU, 0x7f40921c1c676bfcU,
  0x25ece323f2ff0ca9U, 0x7afa26170483ac09U, 0x2916e636fcf38f28U, 0xec23f2ff1cf119c8U,
  0xc0f90fde3c341a5cU, 0xf561ffdcef26ffe1U, 0x1f5be17f55abc83aU, 0xb23adada2427ea9fU,
  0xbbe3f01df50a13a6U, 0xc7750dffd1c70cf5U, 0x54af15eab0d9fd20U, 0xe736f2cefe12d03eU,
  0x330a321523cbf204U, 0xdb2a119f1baf3b05U, 0xd0fb23f1121be00fU, 0x8bfd1e14e17fcf05U,
  0x1cfa092c12000705U, 0x14e9983721220c0bU, 0x4dc2ef534423211dU, 0xf102172fea3fba56U,
  0x46e80fc849e311dcU, 0x1858181e174e033dU, 0x512ebbf07a3f0d5dU, 0xac6de3d2273aea01U,
  0x10c7fc08137f15a5U, 0x81f9e56d18dd4b8cU, 0x917e9d9d3f8be19U, 0xc7e5b3d7c0e4b8a9U,
  0x1e4bafc23f5d28eeU, 0xa9de5819c042e005U, 0x37290504a03ff324U, 0x1e1c0e0be5c516faU,
  0xc42f5fb121512deU, 0x97f2851ba5e4feU, 0x8a17f238b02c1847U, 0xc339c5cee6cecc56U,
  0xf4e6d9021284b8d6U, 0xf1cb20113fce1a9U, 0x3418e00e0e372f81U, 0x46cd04256d0637d3U,
  0xa1bd09151268f8f6U, 0xbd60ced6325d81eU, 0xc80a6715fa192fbbU, 0xfcf4f7d8e21e012dU,
  0xb21555d5f5d6c4ccU, 0xb0408fcbf2d56b2U, 0x247ffbf2cef2bbe4U, 0x74000dc6d913d129U,
  0x48ff04e9f3e61c49U, 0x7f55dee1daf7f30bU, 0x980cd22715b22a34U, 0xba4ad7e0133fcb1aU,
  0x2b82825c3eb023cU, 0xf72c43dad1152af5U, 0xea1b73313405ab33U, 0x4e502e3f725e7dcU,
  0xfeaffaa1dc1f13d6U, 0xb11614beb64fe107U, 0xee5e3155e810123U, 0xb61edce249c75117U,
  0x4317ca1222530de5U, 0xbf41c861a6ce93eU, 0xf10907c4091ace0bU, 0xd0ea053644e7153bU,
  0xf3fc1ae06d031406U, 0x82ff03df9f02aedU, 0xf820f916c535c90dU, 0x1103fee9e234fb94U,
  0xe83ac17fd7a995faU, 0xab2c551b0962fe25U, 0x293e3afd64c5b93dU, 0xe9093a0dcf441000U,
  0xe5430cca4a16b96fU, 0x493f1fde58daf6d4U, 0x56f5fedc9ef97f0dU, 0x28ad3702cf2ad306U,
  0xf9da3812e20651bcU, 0x21d8e6e6c2eac72eU, 0xf55a3b99d81bcd89U, 0xecb5d3b364ce550eU,
  0xc8a5f62ec6c81354U, 0xf9dfc1dcd3c07f1fU, 0x13eafaf9410fef30U, 0xff17b445f32f2835U,
  0xed1149c72efaca1aU, 0x1d3d0a271fd6ebfdU, 0xce702fdc0d734a2U, 0x2ffad6bfbaac1016U,
  0xbe241c48f4081dfcU, 0x1c0f81e914e618ffU, 0xf92023ead7fef8b0U, 0xcd3cfe8edfc10ddU,
  0xecf40f2cffd4cfddU, 0x3669462f221be03dU, 0xe6daeff8e217f347U, 0xfef7e2b9f9dbf8e2U,
  0x13ec14e01b090a0eU, 0x6ca7f120ef09ed6U, 0x186deb0b173422d3U, 0x311bf4fe090a2738U,
  0xfb3f1fc8dcfad0faU, 0xb405130e0166e9faU, 0x13e8feddedd27fbaU, 0xe72c191408ef9e0dU,
  0xfa03df150d2402f4U, 0x5083e141be70126U, 0xf3e30103b1e8f095U, 0xf8c83113103d3000U,
  0xd0dfa44bfe51229U, 0xb44c18ebf781d3edU, 0x12380e830ea624ceU, 0xfd07e6fe20b65873U,
  0x51ef0f75c03f400U, 0x27c9113319280c2eU, 0xf4cfcefcd1e7eea2U, 0x41b9353a0231f509U,
  0x81f702f42b0119daU, 0xf7e9040f1b4de323U, 0x18e93bd8e432ddfbU, 0x45defdebadd129e9U,
  0x7f066758dd341d01U, 0x3701f00d0b0315eaU, 0xdc03f60b2a0e0f10U, 0xfaf1fd13022ef0d3U,
  0x14d3f7f601c7de51U, 0xece707f8d8eb111cU, 0xe1ea1fe71f0200f0U, 0x8010a00faecdffeU,
  0xd4cdeae3daa61ef1U, 0xf7cfbc9524184d26U, 0x3d50d883c3bcfcfcU, 0x16f292bed09c4d22U,
  0x24a7f2d98e780be2U, 0xf6f909c1cf997f07U, 0x27e5e44dedfcb739U, 0xde144af22aeb0b15U,
  0x1cb2202f522e60aU, 0xec07f4e30e0e02f6U, 0x98f81315dc35e0f3U, 0x9ba2b11e308d6b1U,
  0xe6f5f2f40100f3deU, 0xc408f1ffad04f703U, 0x5241fe6307f245aU, 0x11e6070a09efe3ddU,
  0xa4e1116d71812aaU, 0xda3303fd0211fa0dU, 0x21e10a7ff530f8f8U, 0x20f2ea00c2cfe2e8U,
  0xd505ff1910eff106U, 0x61bf623cf06ecfaU, 0x291120584ad9ecf1U, 0xd33201dcd3e72cdbU,
  0x2b005cee4a07f008U, 0xf74c7fdec9cf3102U, 0x3201000315fbd4U, 0xf52d08ca0b1c3ccbU,
  0xfd0409000aa7f5d6U, 0xca1de9031822de14U, 0xbf14c4df18d6bf9fU, 0x7fb2b90dc967edcbU,
  0x400e52e7da53fc0fU, 0x26e61f9dfcecf994U, 0xfd3b1808292fa1e5U, 0xf4f5cf058fde0d2cU,
  0x35f1e1fb1ff6d4f2U, 0xfa0811e61468e223U, 0xeb913ef5f9461807U, 0xdbe7ebe07b0327d0U,
  0x74cb033ee91fed81U, 0x1d0b13dcfeb20f1fU, 0x30242e191fedf1d6U, 0x2d11d123ee1575eaU,
  0x17b9c253e9900aeaU, 0xd31907f6db1bf0f5U, 0x1b0de31a2342cdf5U, 0x27051bd7215c32fbU,
  0x6402edee4548f139U, 0x2cd9f17fd249cc19U, 0xe0db1ce527d2d4ebU, 0xe8140ec3e4cf44edU,
  0xa109dde80ef5d953U, 0x6bbc3d3526d6efddU, 0xdaf6c5c8ebd2ec7fU, 0x11beb6ad150cd4b8U,
  0xf7cec94fe8f3d8d4U, 0x2d0707d4d9f013ffU, 0x2eea61006c1be4beU, 0xd0d7e23bb99dde3bU,
  0x1432b7056203e7c7U, 0xb83170da00fd1ce9U, 0xe84913e2a2f6b94bU, 0x3a34f9e3c7e2aad9U,
  0x2026b30b0e067fedU, 0xb617b321e51b25cbU, 0x3419ee32de2e362eU, 0xf9091ffc47fa0911U,
  0xcada1832ec9e1b9fU, 0x9715f9fd28ec23d0U, 0x40e810141121027fU, 0xe5f13cfdf53d0bd0U,
  0xafbbac6dd3403e2U, 0x2917d7f0cdecd6eeU, 0xf281d8a608291453U, 0x120c01e4f8036306U,
  0xe0d21a492efdc2f5U, 0xf7e9c4eaf7e0ba0eU, 0xfe17efa0d44e242dU, 0x1acc10ec4de704d1U,
  0x295dc4ccec393ac6U, 0x7fff0102460d1555U, 0x1e7fef7fff9d9f7U, 0x5e9000501fe0eU,
  0x17100e05eb1cf803U, 0xfdd1f80801d1e40fU, 0x102f2ed1629d9fdU, 0xe0c2705c5fd19efU,
  0xffe00005202fd02U, 0xf7e6c2d6bf7f1ffbU, 0x13405131decafedU, 0x15ed31fcd7cff3f2U,
  0xd21ebd21c238ce21U, 0xc071186f7e54eeeU, 0x47e5f91bc6c4f205U, 0x361de941ff0d1816U,
  0xa2db6e111327f8d8U, 0xb636e613e151d6b5U, 0xcee8fd34d1209d2cU, 0xe1a728811027946dU,
  0xd3e7ec5bea3b11b8U, 0x2a8d11bbc3882363U, 0x2fbfdff8680efe37U, 0x16fae1f42b1bcbb4U,
  0x4cd0f9372b1e0adfU, 0x42a6d2a93232d4aaU, 0xc2d31d0efbe218d1U, 0x1113f0e8ef7f39c0U,
  0xd2cf47c9fd1b22cfU, 0x1b2e3c07b8191b08U, 0xcbbc04c2e212c62aU, 0x17d10205f9447fU,
  0x3dd609f91d252815U, 0x35040702fb113c13U, 0xfbf405f7ce1bea14U, 0xe711f1201b2905e1U,
  0xcf4f7ff0ff21c13U, 0xeb0af8dcfac7fafdU, 0x16fc3f2ce9211af8U, 0xf2ef8304e002f198U,
  0x1bd81ffad7b214dbU, 0xcf40d70ef9c42616U, 0xf9e70aea583ae3d5U, 0x921022d22600f5c0U,
  0x217f27fcd3daf116U, 0x3ee1eeb102a0f01U, 0xf6d82ee7ef0b02fbU, 0xe42338ede013521bU,
  0x4412372d26182430U, 0xe8f525e3de1b2690U, 0xfd33e1e4a8c43109U, 0xee8200019811639U,
  0x2124a14e027fd71U, 0xd6df34f9fe3d4a01U, 0x1828cf3cf013c60bU, 0xdec05210de06aab5U,
  0xeef70f0a9720f0e2U, 0x37d91f10081b7f2eU, 0x4753aff555d8f817U, 0xf9cb41e657ebf469U,
  0xf50c1681abdd2c01U, 0x2103f40dc34ffef9U, 0x452e33d31a9de17U, 0x2af534f9151c93c2U,
  0xfdb0e83ebbedf436U, 0x4d1daff2cac9097U, 0xd5ab7c3127be50d7U, 0xd1af8cd40b0b9f5U,
  0x7fe0d81eeb2e1bdaU, 0xeee1241a0d241c15U, 0xf822200e000313d4U, 0x3fd804153806d40dU,
  0xab4f9f734f5e80dU, 0xea0afe0c10fffbfbU, 0xfef818f210f3e410U, 0xa9105e18b5183206U,
  0xfc512401fec5bff1U, 0x9f0717b7ad1e0307U, 0xaea25492feafef0U, 0xb4b0b1b80021f7baU,
  0xddccf231af1a2eacU, 0x44b207f2ef3d1ffaU, 0x7fe7fdfe220e7fe6U, 0xf3e814f4f91d1be7U,
  0xf0f9eca9161a9ec4U, 0xe9c00d182a320de9U, 0x302dd40e0c353104U, 0xf2fe00cbdb1de511U,
  0xf8efe3d318e0d4feU, 0xfe04fd22e8c001f0U, 0x4822e75fefc93355U, 0x7f36f1b9ecf115f0U,
  0x9b5fdfcf20215f2U, 0xf300160c12d0bb1cU, 0x13e4512204c130c8U, 0x24451efc0820fe35U,
  0x170ec3bce91860f2U, 0xffffe2430000e6f8U, 0xffffe5acfffff831U, 0x3ae1000003d8U,
  0x403200000e4cU, 0x3c2f000020fbU, 0xfffff9c9fffff555U, 0xfffffbd6fffff2c7U,
  0x179200000977U, 0x1381fffff14dU, 0x3fc100004434U, 0x14d60000394aU,
  0x34a00003accU, 0x1d55000012e2U, 0x29a0000006dfU, 0x36a900001cf8U,
  0xfffff8890000283bU, 0x1b0800002fc3U, 0x258a00000cbdU, 0x568a0000080fU,
  0xffffee8400007309U, 0x3f96ffffd91dU, 0x225f00004585U, 0x1bc400001482U,
  0x60d6ffffd651U, 0xfffffa0600003df2U, 0xe7900005438U, 0x1cd00002533U,
  0x19edffffecf6U, 0x59ba00002d8eU, 0x47b9fffffc20U, 0x32d7000005f3U,
  0x2786fffff041U, 0x1aaafffff11eU, 0x3600000245U, 0x2c39ffffb84cU,
  0x381b000034d9U, 0x13a500000ee9U, 0xffffbc8500000f93U, 0x299c0000246fU,
  0xfffff4d000000b7bU, 0x42b0000229eU, 0x68740000086dU, 0x12d5000017b2U,
  0x2517ffffdbe5U, 0xfffff74000000989U, 0x2468000017b3U, 0x9e500001213U,
  0x238a000026c3U, 0x326d000034d1U, 0x5da8ffffe558U, 0xfffffafbfffffe01U,
  0xffffeced00005d14U, 0x1b1900004576U, 0xf7fe166ffffe4a0U, 0x37faa8f3d7f3c37U,
  0x7fea3f817f7fbf18U, 0xa63b120781f47f9cU, 0x22ae17818de37fb5U, 0x9db76c2b3fbe5c23U,
  0x817c60cb8cdc6410U, 0xe0d93cfcbd81c5c5U, 0x300781c7ddfffcU, 0x90c7fc57f0114ffU,
  0x9e7fe7e1698181b0U, 0xcf0f03ad2f986b7fU, 0x7f1a85b27ff981c8U, 0x32c1fef2ae9b7fc8U,
  0x9d38d7f64bd5242fU, 0x98cf285e7ff330e1U, 0x7fe0e4f7ac7f2edeU, 0x3f2a0843f68182f3U,
  0xbf022c9a663404bcU, 0x6b9b2881fbe5fc35U, 0x23f4a09381c4002eU, 0xaeb37f14c97faaU,
  0xea96887f6b087fU, 0xe1c129fe2b81ff8bU, 0xd2c57fa79cf7d431U, 0x67e3c6a1dfe1163dU,
  0x81cc6922a9815022U, 0xbe432f18c5b1cc81U, 0x1c089c76e4cbd709U, 0x7e7fa6f052dcaa6eU,
  0x7ffe57925e817de3U, 0x64432ce23c848137U, 0x9dcc01f59f33817fU, 0xc1ac93f73afd3190U,
  0xc6b0e1f4eb050f04U, 0x8ee53c110928ef09U, 0x81593382c0a4a6e2U, 0x531ba8ebe920a4f8U,
  0xcfb683e3cabee6e2U, 0xc8f9cfac6e81b522U, 0x167f1377854fe420U, 0xa5cfc4f40a8ccdfdU,
  0xe9463fabc8edafbU, 0xbdfe812444eabd28U, 0xf022f39f20f58fd3U, 0x7f7f87a33a08e44eU,
  0x2014e2ba2bde81f3U, 0x7c5ea814cd89cceU, 0xe2db2ad6c60d0e54U, 0xc2049f6819277b8aU,
  0x78ea29fcea56febeU, 0xf1af834d7f0eea7fU, 0x54514dbe617f2e9aU, 0x600b40aac51cd3d7U,
  0xbf244a71af0919dfU, 0x177fca4bb80e50b6U, 0xb0031f7f1d308f6cU, 0x39b3e2f22d14c426U,
  0x8118ddf281784815U, 0x629a7f162043f71dU, 0x6db27c0481f706e6U, 0x27d55b6832417fc8U,
  0x34a4290fd11f0009U, 0x1115c37fc50b2e44U, 0xed53e6dcfc0f22d0U, 0x155bd9b4e57fdc81U,
  0x3fca9cba77cfbc45U, 0x79785a2e1d3cc992U, 0x2146cd01c7bf3907U, 0x4ef6102a50af3c20U,
  0xdbf34211d9ef478eU, 0xc91a1789fce91481U, 0x10021148c4fcab0dU, 0x1e07ede2c00c40b1U,
  0x703720b93e7fe6e7U, 0xf9b2c20169f4f62dU, 0xf0eaf42238277f89U, 0x25d02d76a4093107U,
  0xcf8fb03a3dacf81U, 0xd57fcc54d2f56a15U, 0xcaec7f2549f98125U, 0xd0dc1b0b53ee8181U,
  0x33eb5aee2d1481e0U, 0xeb81dc1a5a5f43e2U, 0xf91b9d81ac01f8e5U, 0xa0de771e93faf55eU,
  0x9299867f3f81144eU, 0xd18510c8bcde0dc4U, 0x1660d9ae2c0a13fcU, 0xe6f6f633a47fed30U,
  0xd2174ac71df8d9b5U, 0x3ffff4894f5547fU, 0xcd3b1cba64f43b50U, 0x6a107faa12efbffeU,
  0xa46b8123eaf3adffU, 0x73c0c10dfdeb6fdU, 0x3043565e43b8f9f6U, 0x8d994d07c2ca0e13U,
  0xc6e1a48102fe1aadU, 0x341a093d317f0b2dU, 0x61cc2f4a7f7f9fe3U, 0xb817fcaa0dc7ff3U,
  0xd63773eb127f106dU, 0x60ea7ffca6c3c9e5U, 0xd376e299dd01c3fbU, 0x191e26c581dadb14U,
  0xb7d8223589c17fa9U, 0x2426dfed7feb6919U, 0x3e0754062ef61981U, 0x661963a4f5ef1dc7U,
  0x7fcbfbba14dbe23fU, 0xc9c1b80a628181e4U, 0xbf4f074921de86d5U, 0xe0ef0c1eedb9f6ddU,
  0x26b181270dad55ffU, 0x72e907d5c87f2cbdU, 0x6ef81e62a09981aU, 0x81e125cbd73f8108U,
  0x6e3809f8fde6b135U, 0xb351907f2f36U, 0xe3efffffaffU, 0xfffff442fffff6f7U,
  0xffffe2bdfffff137U, 0xffffff51fffff56bU, 0x220000003bU, 0xfffffd9000000019U,
  0x4f8ffffffaaU, 0xfffffde3ffffef06U, 0x16a8ffffffacU, 0xffffeee6fffff357U,
  0x56ffffffcfU, 0x1d1fffff382U, 0xffffdfdcffffff6dU, 0xfffffc3c00000300U,
  0xa80000064cU, 0xfffffb9d000008edU, 0x8f10000091cU, 0xffffed2500001c97U,
  0xfffffee000000966U, 0x468fffffe7fU, 0x81afffff5b1U, 0x312b00000780U,
  0xffffff62fffffd9dU, 0x116fffffff06U, 0xffffe35ffffff999U, 0xfffffa18000003f3U,
  0xfffffcc100000022U, 0x2e5a000021c0U, 0xffffe302ffffff35U, 0xfffff1f600001b2bU,
  0xffffe870000007b7U, 0xfffff9f70000002aU, 0xfffffcea0000009eU, 0xffffeedefffffd8eU,
  0xfffffae600000f8cU, 0xfffff357ffffff26U, 0xfffff967ffffff2eU, 0xffffff8f00000f02U,
  0x2dd000003d4U, 0xffffff270000000cU, 0x14fbfffffcf5U, 0xfffff73ffffffb2fU,
  0xfffff6ea000003bdU, 0xfffffa35ffffe64cU, 0xfffffb20000008c2U, 0x1a34fffffeceU,
  0xfffffd67ffffffd4U, 0xffffffbeffffff89U, 0xfffffffb000002efU, 0xffffcbcb00000094U,
  0x21200000119U, 0x83fffffc86U, 0x1a3cfffff599U, 0x26ecdb1e14f73202U,
  0x51f51314bb441042U, 0xf143c43fd9110224U, 0xd6031247f70c7bf6U, 0xf4e0301c281a17f7U,
  0x400d1c0317f1e9e4U, 0x2543020ae923f224U, 0x16e9bf10f523edc9U, 0x4f8062f0912fd23U,
  0xd93e37eae5fa2943U, 0x4e81df8e120071bU, 0xc7410025f00cfdeeU, 0xe7f0224f71971daU,
  0xd6f4f5fccceef01bU, 0xf8e61de5ecf3f525U, 0x3e567ec3322dbf5U, 0x1ec0503f613137fU,
  0xefbc2e18e614e9a6U, 0x1a07e822c11b3035U, 0x4fadb07df160cU, 0xf32216ecea0cddffU,
  0xf1f201ef1d28d9cdU, 0xe70ddd404a1942U, 0x15a6ee23fcfceed8U, 0xf5140602fd39U,
  0xbc071c4f290ed9eeU, 0xbbcb2607052a022dU, 0xbf522d115e3fd1eU, 0x7c32e90b0e0306e2U,
  0x92c35f62d290fd7U, 0x3cd4fd31e2c30133U, 0x8141fbe1fd20f3d1U, 0x55dc9cd0b2499adU,
  0xf306c80cbe02f505U, 0xfa1b19f4d231df12U, 0x2180ec60b5d3a2dU, 0xd878f200b4183714U,
  0xe62f3710e5f40424U, 0xe41ef0ee55440015U, 0x2813f7cb4fd7e822U, 0xaec9fefd17c3eb44U,
  0xb7cd16c0d4ef1da4U, 0xac04492ffb42f2d1U, 0x10f1a2be8810e05U, 0x165225f60464f36bU,
  0x1207a6adcfece52dU, 0x2af51ddb02f6d5f3U, 0xe9d7e61dcf0920faU, 0xaf4e1e0d24ae6U,
  0x3de4bc18be94cad8U, 0x20a7f6e215f0f008U, 0xdeba950f002147c2U, 0x34f42bfdfde068e6U,
  0xefeefaebe3fc2dffU, 0xf3d8e6effde40e04U, 0x6fbf1edeef120fbU, 0xd00fe1203dde40aU,
  0x6f93e7fe9fd182aU, 0x1f1d1113f54123daU, 0xe50400fd200a2d21U, 0x2c06f13bfaeeefedU,
  0x4e11225d91af721U, 0xcbee09f7d919daceU, 0x2519edf503fde83dU, 0xa00f059e81d0eU,
  0x2ff9f80820120bf2U, 0xd415e6e5eddcfbU, 0xdd0010efef0eee2U, 0x1eef90d53403f707U,
  0xc62ad14ae92c07f9U, 0xe4d15d023344f4f1U, 0xfce52a16d9f8171aU, 0xf9242822183424d5U,
  0x5628c52a02a77f43U, 0xc841fcf21b4120U, 0x1a106428c221f9c4U, 0x1ffd31fb2b06ff15U,
  0x2a2213043fca0cU, 0xb1093ed12714afeeU, 0xf7350afb9ff5a904U, 0xfdf8c4ed171629fcU,
  0xf332fb161bf02f18U, 0xf9c01bec03f34725U, 0xf31008f5f8f71816U, 0x9dbf3d71510edf9U,
  0xd656ebf1e7e90dc1U, 0x1136240411ddf9e4U, 0x130a0100efeefef1U, 0xdc401bdfcaf7fdU,
  0x390a0dfc5e0e22f4U, 0xdb26f728feeb237fU, 0xebdc154f1f0900eeU, 0xd00efecbf2fb33f5U,
  0xffe61be821ef7fbaU, 0x22fe0ae4ccd7e0f7U, 0x152cc600e4f8ef69U, 0xdcd5e301023b2c04U,
  0x20dcdce43564e3d6U, 0xfc34d82029ed202fU, 0xfedd072bf80d27f1U, 0xe2e11e1715e722fbU,
  0xfcea08d12a16f813U, 0x11d0e2e910fded2fU, 0xd60c4e1df7f43b0fU, 0x2940430400ecfc25U,
  0xe7cf26b65a3acbfaU, 0xed48d3e635e61026U, 0x24e1c0d15d92b06U, 0xfaa865e652141203U,
  0x1df80afea525b31bU, 0xe20aeeeaf8d7522dU, 0xc30c0cebe12d0511U, 0x7ffc14fd320918f7U,
  0xffcfe924231b07ecU, 0xe5e80646c8f209c4U, 0x53edc339e60ff72dU, 0x1de00fe3cd49e9b8U,
  0xf6fb00084b670414U, 0xf0e820fbdad636f8U, 0x6fcda57eb47fb11U, 0xc3ed0dd61433edfdU,
  0xfad97df4e816f8bbU, 0x2ef614e05145d012U, 0x2448db1434c2fcbcU, 0xef2f005c6304db9aU,
  0xc96efbdc7c0db7fU, 0xaad536004a48ad14U, 0x2722cfea23513efaU, 0x132ae9eae4ea1143U,
  0xcd1326ea8e4bedc8U, 0xf52de110f9e9f8U, 0x2217fd180af9494cU, 0xace20cf8bee54f51U,
  0xd9020bcc13012b1fU, 0x4a24120e3a193b3cU, 0x952f2c17c6e01bc1U, 0xed023bc1181d28efU,
  0xb690af0cd026528U, 0xc4ea81030fffb4f8U, 0xf9d0e8372b040414U, 0xb601f2e88923bb39U,
  0xfe08cb04cdde0d4aU, 0xdce1f1060f0dec25U, 0x5180db9d4f2cd37U, 0xd540ffe502200020U,
  0xd1ef060ae8ead82eU, 0x3215de7f0029c5e0U, 0xdb08fc5e260ae8dbU, 0x6621080a2be6dc38U,
  0x3efe6fcd2c59052fU, 0xfcdaca0a9d12e60dU, 0xc5d329e9c708ef15U, 0xa12ade5e074a0b09U,
  0xde8e1d7f70dee04U, 0xccfbe5f500a7a019U, 0x352218d13b2dcce6U, 0x1acccf08e82bdedeU,
  0x1be132e40042e7e2U, 0xff106babb2eef29U, 0xded720ffd4381d16U, 0xffb9f609fe202ee7U,
  0x2105cbe13ff7e133U, 0xe57ffd110fd90ff7U, 0x1cfd7ce8034bec07U, 0x25efc2e2f625250bU,
  0x9eafbd504061ce7U, 0xa2f12380408ad0aU, 0x31f0083e0b13c5f9U, 0x914f919d40422f8U,
  0xf23bb8f54b271ffdU, 0xfdf5004227e546c9U, 0x2e00191be0e325f2U, 0x1ef9fb2e05f309dcU,
  0x516f7ef0403d516U, 0xdc08e5e8e617104fU, 0xef05fcf7edc8d7e6U, 0xfedce6c1fd0dea0bU,
  0x352ded0cef8102U, 0x3ecdfde04f032f1U, 0xe42728e5ec68e51cU, 0xbd4e7022adefc35U,
  0xfc21d20be514ff06U, 0xe4010c06d2cbfa0cU, 0x1303241528d20aU, 0xe7dbfe291d1be9deU,
  0xc002ddf1115efbffU, 0xc1f2cbcd3ad0e3cU, 0x53b3fb030ee1f5d6U, 0x3797cfa0d9d0d307U,
  0x156c423ad5de08b4U, 0xd84132fec6dbe4e8U, 0x9d1f9b83c1df007U, 0x370a09aef3e31608U,
  0x41f126d32a39dacfU, 0x5af66efcecd21b0fU, 0xf4bf2ff8fee8cc87U, 0x63f737e39403c605U,
  0x5948d8dde309002cU, 0xdcd5677f2cf6060fU, 0x2ed09e204ee01f4U, 0xee920b425fe127fU,
  0x1116e616ff164c28U, 0xcef2d4e01026e206U, 0x2f000ceaf1ea16e8U, 0x3dea05d305a9e9efU,
  0xfdf4d3ff043deff5U, 0x33013ae304e3e130U, 0xd343fc2e5416f805U, 0xd2320e11536d3feU,
  0xeb0c003bd801e113U, 0xf8360e4c0026ffffU, 0x10e84536fbf401d3U, 0xd9f53c21d3bef6eeU,
  0xf16fb0b0933f8d1U, 0xd2021c031d0fe51eU, 0xd2f715ddf325fbf3U, 0x8ea192ad51914e4U,
  0xef231811f1030ed4U, 0xa8e400434214acb3U, 0x19dae6c5e6eef7c1U, 0xe9120e0eeb01e2fbU,
  0x1cddeb0dedc310d7U, 0x34d6f3092cbe8133U, 0x273d001c1df611e8U, 0x431112fefd361603U,
  0xe1cee9cabb0eec1aU, 0xbef3e1e0200051dU, 0x3d2ae0e2011ab92fU, 0xf6f1e6ffe3144e96U,
  0xdbd80d02e0e365ecU, 0xec6264b22ff680aU, 0x10371c19fc07b3f1U, 0xcf08ee19d52e2b20U,
  0x39e1d90027ab14c3U, 0x41f2225e21ae5e8U, 0x7e128bfc50861deU, 0xe85a36bbd71dfcU,
  0x3f143fb706167f05U, 0x1f05fffdd1e92328U, 0xa042000fd7f27e9U, 0x1c14e61bf2cacd13U,
  0xf241e1c270302d7U, 0x20f7ed1114ebd900U, 0xc2e6dfe7d203d8cfU, 0xf0d50df6eafee6e5U,
  0x2713b2ebfb110520U, 0xd9ac0e28f7ba1bf8U, 0xb803cd35f729ecb0U, 0xa300522e6e4c6eeU,
  0x350b35fcb6b5f6c4U, 0xe6301f30fd1a000bU, 0x7d62d7916201bd2U, 0xfedc1505ffc92906U,
  0xece6e216160ffdfdU, 0xd63df90c1dfeb1efU, 0x18f70b12f7e0e5e8U, 0x3fbd3e11c52fb00U,
  0x8dd44fae522fd18U, 0xab28f2fc023a3ee2U, 0x240922c70805d7e7U, 0xe8df0008daec4903U,
  0xf3dbc626040b25f0U, 0x1de620f6e638e3f4U, 0xf07f00dc001422e9U, 0xf4eef23024fa25U,
  0x33cfd9efda2c48bfU, 0x17fcf533f11f1232U, 0xfff9d8070e38d510U, 0xd17f041d31b80e1fU,
  0xdf0f53c4ffd2ec07U, 0x364fe2d61fc513bbU, 0x300439e711c7efU, 0x39459ce2b1f8093dU,
  0xe6092c55c506ee32U, 0xe0518dfe428091cU, 0x1ef2e61c4410faf0U, 0xf625003903e0b902U,
  0xf10ef31cbdee410aU, 0x1f27f5e2f529e9fbU, 0x1cf1ddfef6101308U, 0xe0db0d1dfde7dbceU,
  0xff45d302e40c071cU, 0x2210291f15c8e7e9U, 0xe6240e2c171b2efbU, 0xf601ecf03516ff05U,
  0xcd5e4dde755e6c2U, 0xea22f12c1b2917e3U, 0x2f7f0d8eefe14edU, 0xdb2425b2c735f91eU,
  0x10d21b4ecd0221U, 0x1e30250a1ee38127U, 0x18343f0dfcf03c22U, 0xed091df9da199910U,
  0x26b70d0def23e51cU, 0xdd001fe4f10be004U, 0x28ca0f072d090a24U, 0x906f423c603f313U,
  0xf12ef01b31f4e741U, 0xeeb1fb7fc841f9fcU, 0xdc3d190500ff0508U, 0xdf061e0217b60a08U,
  0xf1ed9bf9e1062b2aU, 0xfc0d3003d330fdecU, 0xf7de090b05dc000fU, 0xb801ed1b101d1befU,
  0x2dbdd28bf1c20c0eU, 0xf5c0132aefc013f2U, 0xb8cf0497ec13dfa4U, 0xfa32e105ee560513U,
  0x7e8e213ec47b921U, 0xe30863e302a47f2bU, 0x9d1e48eb33e493U, 0xd7a7dc27d2760c0fU,
  0x1209232db4fc2612U, 0x2e00fc20bb4dd160U, 0xc33256cf6dd08fcU, 0xfabdb6db0034cf17U,
  0xf24eeaf801a50a8aU, 0x39a138d33f43f13cU, 0xe61139c91002f026U, 0x54d8522ca6f936f2U,
  0xea0fcef9051745e3U, 0xe143c2e7dd0f221fU, 0x229c380d3acf25efU, 0xeb9202fe5bfc367dU,
  0xca076f0c200f17e3U, 0x18bfb4c7e2cc2cfeU, 0x666af1fd18bd651eU, 0xe4ac781d19d3f8e5U,
  0xdcf400f58128e1c5U, 0x304c1eeeb4f9e417U, 0x1c0eb6d026231a7cU, 0xe73de12418fa3206U,
  0x3a11faf3922ce0f7U, 0x2eeb023000f62019U, 0xfcedb83fdebb39feU, 0xc431278156b73212U,
  0x40d0cdf4b0fade8U, 0x46f420d602c4fe1dU, 0x11cecc0eb0fdb13U, 0xd4e713e941e4f0d9U,
  0x4b29a98a17faec33U, 0xdeecf0e1db3415U, 0x3c1845eb0ac15de4U, 0x2f44ef2201f39925U,
  0xcedf7fd0b2208d9U, 0xfcf8de40f2d00a14U, 0xc4f3ef11e8ea1716U, 0xd040dc2cd2def626U,
  0x2dde2eb1462d4e6dU, 0xc6bbe9ccd9d01807U, 0x1426efe847ebfcdcU, 0xedff230711bbbefcU,
  0xefb5172b01a4e2caU, 0xef631aef3705d232U, 0x1dfdb3e2efa06acU, 0x81b2d24323e700e1U,
  0xe70a1612cffbc7c3U, 0xfee50729e122e71cU, 0x6f9f7e9e01c02f6U, 0x70ddf04e2ddf8U,
  0xf9f7ffe4ddd60000U, 0xe82a4b1fec083220U, 0xefc0bcafcf4c100U, 0x7efefd203e20b1fU,
  0x1a2613f306fbcee4U, 0x2e0e14c60a1910f9U, 0xd2f20431f2e6ecf8U, 0xe01ada3313e6027fU,
  0xf3e9ed1800edff11U, 0x131628031afdcbb7U, 0xe362caf108c4be0cU, 0x1804e211f80ed80aU,
  0xf5c3d9f9d42fb91aU, 0xe7e50719fbdaec25U, 0x2ae2e30307e906faU, 0x20c5dab3e4171024U,
  0x24f6011013fe34f8U, 0xf6f6d6ecea7fef1cU, 0xfe07cd251a45710eU, 0xe8d42ea8e7e91e3dU,
  0x260fe4f8f23001eeU, 0xa2900e3fa02b927U, 0xd211e131a701d0cbU, 0xe8c0330acfef02e8U,
  0xf141fdfaff31d10fU, 0xfa140054f107fee3U, 0x4e082105f428f847U, 0x7fa41656d725175bU,
  0x4a11dbfc30ad1bafU, 0x3c3b90d42da1e16U, 0xd8e54064c7ec1025U, 0x2a2bbdd129391703U,
  0xad4adc5f403f334U, 0xc913b9dd27e627ceU, 0xda3d13cf0145d4U, 0xdff5017c4735ef68U,
  0x1bf00ee111cb7807U, 0xe0f2201ded1ca2a3U, 0x52c2e4f63c3015f0U, 0xded34aff07faf801U,
  0x18ce392d40d738ebU, 0xe0fedc201e003d31U, 0xfc18f4defd000a17U, 0xf0f004e7f37ffde4U,
  0xe807120e0b1f1319U, 0xcdc5e30de7c63a09U, 0xd7f9d91808df2eecU, 0x1ffcc234eae5e2ffU,
  0xe507e00528fd00dfU, 0xd4e60fea05fdc0f5U, 0xfadef5093f53feb3U, 0x954f8fee805e53aU,
  0xdb16d5f542ef2c12U, 0x5b3529d0db0dd4f4U, 0xf41ab0f9c55743f8U, 0xc78fd5f003042f56U,
  0xf3f3eec5185f7f07U, 0x37f4340c02f434a4U, 0xee0124ccfcd3f0eeU, 0xa2fd5ad7f3242687U,
  0xf20e19cbe8fae008U, 0x13259040038e8e5U, 0xb004030837f4f7eeU, 0xe40fe57fe5f6edf4U,
  0x16f60000191218feU, 0x1e151e0eeef1ff52U, 0x811f6e4fb0de9e8U, 0x18ff0de7d90aecf7U,
  0xfa210718e2d4fe13U, 0xb2cbf1f7e81d2edaU, 0x11d81213f8f80cd0U, 0x30248e80234fe17U,
  0xe2eefcd8f0f514f7U, 0x110f400250606edU, 0xee2c00fe050a49f5U, 0x392bd2d2083ae5d1U,
  0x46dbe1feddf631f3U, 0x2c0514d63ac44341U, 0xf6c9cee810f72d19U, 0xf82924b52bedd404U,
  0xf7fdaf61feaf802U, 0xc8bdb72fed26d401U, 0xf7bc5b26f7ff5cd1U, 0xf504e7d71dcfc7d8U,
  0xf300f83dc5225923U, 0xf3423fdd4aa10a0U, 0xcd4c484fdd170023U, 0x5f1e14e200822U,
  0x7e8f8ff053730c3U, 0xeddf69fae31300fbU, 0xe021fe1ffe5f0140U, 0x2116090f360611U,
  0xd0cd07da0ce75706U, 0x3ef140f57e9d3afU, 0x1729e9e621ef5b02U, 0x38f6f1cb05e8bf3eU,
  0x2522c7ef163d0804U, 0xacf1db01efe83be3U, 0x18e2c8e9ea0a3506U, 0xb2b7f6c536f3d6f3U,
  0xf720f98142ef2533U, 0xd7b204081e4200d7U, 0xe102fd8c3ce431ceU, 0xfae1f01f63b028c6U,
  0x6223f066280e0ae2U, 0x171c956252dc72aU, 0x81e9f310f8d6ee53U, 0x3923dbf6f8f4d9f1U,
  0x41120ae0de1d64c6U, 0xf48e36d20bd5ebdeU, 0xbb4fdfcb4ef92cf8U, 0x14b323ecf236c9d9U,
  0x1df09adf19c4f729U, 0x5cad22cf2bfc26eaU, 0xdf2df12400f8bfdfU, 0xf20b2212e0cc1102U,
  0xdeae06edec42b617U, 0x113006a01cc8e805U, 0xc21fe1da9f123cf6U, 0x5ac9f43aeec2d30dU,
  0xf8ea28e2b0d113fdU, 0xadc332057ad1decU, 0x10ec060825d50d57U, 0xde3ff21dc1617e2U,
  0xff20a5026119161cU, 0x29010af91f0afbe6U, 0xfff93123328139d2U, 0xdd0900e7030ebc0eU,
  0xbb52e845fbf2161eU, 0x99e0f92ff3b903U, 0xd8ea13142801061dU, 0xfdec0006fa8ac324U,
  0xf0fee9e6a90110feU, 0xd52b12e3bae0aee4U, 0x91a1b2901e8ef49U, 0x5a1e0d30303111U,
  0x8117df0c2e11efe8U, 0xf333e41c0a19d9dbU, 0xecfff701e9e72130U, 0x18e9aa190a200623U,
  0x802de130feffdU, 0x21694e515e0cdfdU, 0x4cf905bf19f0dbU, 0x122613ebe3f0ec4eU,
  0x71b1f2affcefbcaU, 0xea2aedd80bdffcf7U, 0xe0732111fbfa0102U, 0x47cd1402934d8c26U,
  0xe4a4ccd70402221aU, 0xe2f923032d14fa08U, 0x35f2b2ee87be29f5U, 0xb3e3b60dfceafa1dU,
  0xc11032742df0cc4U, 0x210ac8eacc6122d2U, 0xf00bc58123e400e0U, 0xcef066330ee902eeU,
  0x39ff2f59f93dc114U, 0xeaa2f11936e50535U, 0x36c1cd4314e7dcd5U, 0x1af0c4e97f01a02fU,
  0xcad2000431ee212dU, 0xc85c10d8ebce3ce4U, 0xf5a137570c6cd3f6U, 0x1e181d16b935234fU,
  0xf8552093e9f92c3eU, 0x57db04eae7ef861bU, 0x3af6e402fb1c0af0U, 0x3807f50600ff6747U,
  0x4633fc00f31bffb6U, 0xe2dc82505d76c04U, 0xeaccf4100d162bd3U, 0xd8ddde17d20ff7feU,
  0x17190c3fd010f10bU, 0x4d93813d8e9e6d3U, 0x1946017ff6f005abU, 0xfb22f91ddef51240U,
  0xfce8e2fd060bcef1U, 0xed202527ffede5efU, 0xdc0fd312f504f3e0U, 0x10a17df49cbf50aU,
  0x2513001ef3ea150cU, 0x8e6de25f5fe1200U, 0xfce048f60d01c7e2U, 0x34d00408f7c3dffaU,
  0xa2417124528f7f9U, 0x1ed9e9e0fb04a524U, 0x18322b24d2dffe1eU, 0xc430e8ee52fa25d1U,
  0x3fad81304eee71fU, 0xefebdfd7e0b7020aU, 0xf605fc2c1df801faU, 0x2d9f1121510fdf6U,
  0xfe1bfcf00200efe8U, 0xcf38eeecd622e7U, 0x6220e14dc7f2436U, 0x53e72ee3f31ef8ebU,
  0x1cf430dcddc99731U, 0xeee7df6c5431cf5U, 0x11e4deffd2df0a64U, 0xe3cc13db2217150bU,
  0x20efda00be0d211eU, 0xecb0cb0434f413U, 0xc1e6e4cb0bc303d4U, 0x1e7ff110ef0de1c3U,
  0x5efafcd1e3264041U, 0x513e33a2dd50cb9U, 0xf32bfcb6e23300e3U, 0xffeaf340bd060018U,
  0x530ce52fe312bf05U, 0xd32515b9190a04efU, 0xf4ece112f1bb3da4U, 0xf5e30e32011cf5ceU,
  0xdceae229cf29ed20U, 0x221b60b31d54fa30U, 0x991106bcb10d7f13U, 0x2e395925fef7fddcU,
  0xbfd0acf1e41e3b0U, 0xd1190b0bd52ec903U, 0xd6c9fbdb010ec13dU, 0xfc26e81fd4bfe0f8U,
  0x217f90300ef3e14U, 0xf1280c5501b94ed9U, 0xdbdb531fc1050709U, 0x18f0f037000ecb49U,
  0xf73a27cf071ee9deU, 0xddddd20d81c9340cU, 0x3f135237f4d5cfc3U, 0xd1fbd6c5df14eb9aU,
  0x13dafdebf31890e9U, 0x2f0aa80a10381e55U, 0xfc2ee0bc06e3090aU, 0xefea24f0e4d93138U,
  0x45e2ce0c0c0b22c2U, 0x2c3c0021083021feU, 0xdffeec0efc0f11ffU, 0xc25513dce4e6cbf9U,
  0x291c11e31cc7dc1eU, 0x1f1deb797e4ce525U, 0x1332af30a37df4dfU, 0x35fa910ef7bcfac8U,
  0xfaf79e24e020f438U, 0x3cc030df0e21103U, 0xb1f22d05dd1102f5U, 0xb21de0ce005a5dfU,
  0xbb07340fae81ca06U, 0x1231a4d5f20433cdU, 0x20f220d6d8f5bfU, 0x21fb1d411f12e132U,
  0x10ef4900fb1e3012U, 0xf71d3813efef1fbeU, 0xf67f4165e5111d00U, 0x39ecb0f508fc21c2U,
  0x25fa03f91be6320bU, 0xf074023fde9f329U, 0x38011309221a051bU, 0xec061ae31215062cU,
  0x4fb1c04a81903faU, 0xf3e019f9fdcfdbdbU, 0x3536ed05d8cd44f6U, 0x1209e13611f9f1f8U,
  0x23e9eff509ed0006U, 0x628f005d006343bU, 0x1e3d01962e631316U, 0x3eeffdd5f61b0aedU,
  0x3df0ee571a50eaf2U, 0xcfff1b1bbef6bff9U, 0xf8c0e7047a5ee902U, 0xb55efbd3f8f24e38U,
  0xf7bbfbc801811fb1U, 0xf215161b253945a8U, 0x4ec8e6eae9c0f2eaU, 0x2e0afc6a09e9f7fcU,
  0x5dd122fe93929d6U, 0xff21072800cfab70U, 0x111bf225d6cee7fbU, 0xc3e448ce35ca2a2cU,
  0xf42d2e2f1af32101U, 0x8dd71fe550d62c06U, 0x232444e964ee1211U, 0xfb1ad65ac51002faU,
  0xe3d2e6ff286be90dU, 0x46d3fad2c140cc1cU, 0xc4bd1dbed6270904U, 0xdddfedb8e41b2f96U,
  0x30ead5985adf30feU, 0xe5eef8dfc97f26ffU, 0x2b0b00f2b31de3d1U, 0xf6c6ca14adf6f360U,
  0x16a9b9ef23f62412U, 0x43fddef4130f1cc6U, 0xce923e7bde5723d0U, 0x14d605e094f419c3U,
  0xda18078d080c0b09U, 0xd8faf4f7bdfe81e6U, 0x8cf3cc6b0ec3719U, 0x7229b6ed904c158aU,
  0xcf9bceea0de2bb75U, 0x5c3cbee50b761da4U, 0xc510df6e1de3d403U, 0xf90743e53e040cU,
  0xd52f041138ccfd28U, 0xb3bef811eafac2a0U, 0xfcc6fd67fffe35cbU, 0x52e25555b6d3914U,
  0xc3280547c7e32ee2U, 0xafadfdf7393efa19U, 0x2133cc0eddf93a2dU, 0x18d48bdb09122000U,
  0xe2d5c40d33bf0a0cU, 0x81ca3e221c130703U, 0xe9d8e700d519bbe6U, 0xc8460c175b0d4b04U,
  0x516ee0c36b70531U, 0x9b42ce29db39000cU, 0xe3d214ccbd1db424U, 0x34bfe2e4d3d9d9e9U,
  0xc5102d2e321626feU, 0xcafa0b1e0c0f2948U, 0x1c0bf5d0d8faf107U, 0xcfd0bf24b16e216U,
  0xc8d90401fab5e04eU, 0xdc32eb05061017f0U, 0xd41ce3cfe130a26U, 0xf723f92bcb21a626U,
  0xab1de8bb23f8cffeU, 0x14d335d4d02803f5U, 0x4ae30358001a7f1fU, 0xfe1214fce5011929U,
  0xfb1bf606fd81fbU, 0xdebd14fa190e27U, 0xfefe18d305f2efe4U, 0xbf08001ddbd51421U,
  0xe8ff26de06e1e21cU, 0xe8162d1a0817d6e8U, 0x1423ffd4f2f30c0aU, 0x2ff6f9d4e014ebf7U,
  0xcdbf4effcf0f11fU, 0xfdfffc2d14fcfe1bU, 0x292520d611cf06f7U, 0xe3ff00ed09023cfcU,
  0xd5f5c31c0ee64bc8U, 0xe0cfe92b13fbe12dU, 0x1d41f226f632010cU, 0xc4d4de7effea37f8U,
  0xfd4df6d2e24405acU, 0x47e3e0e412fe5318U, 0x600fd21fd1520f3U, 0x9cbef2fecdd3921U,
  0xb8d6fa128146d4b1U, 0x239eae632201429U, 0x19ede6ed20dce92eU, 0xc1fc0c23c2f5f8eaU,
  0x1c22f447e64a1bU, 0xe91f514eea02d34bU, 0xf62ae2f51505fc29U, 0xf00434cdd0f002b3U,
  0xf903dce913f2e3dcU, 0xefeca81304e60ebbU, 0x5f80431f6bff11fU, 0xf53e2c1e75ea0125U,
  0xe2bf70427f124dbU, 0xfa1fefb80600fbdcU, 0xf419e4eefa28eff7U, 0x1cf8d881fb0abd12U,
  0xe0f6f813fab4050aU, 0x2b0f19f13325dc27U, 0x2e040a0e180b00edU, 0xbf008ff912f42fc9U,
  0x50500e2ff94fc00U, 0xe101000deefe00daU, 0xef13e20000b981baU, 0xea1acaf8c307eefbU,
  0x1cd2200ff3d061eU, 0xfde818eb22cf622cU, 0x3cb200d00ffed03U, 0xe81d64fed1110051U,
  0xffb00ebfe074ce6U, 0x1c4dfc16fc01f304U, 0xc2011c222fe7029aU, 0x100ac000000fdf3U,
  0xfb0058efd7f7e652U, 0x386b8cbd0e04f9e5U, 0x706f811fe26eae7U, 0xeacb29df4c170419U,
  0xd6f400321ad3b300U, 0xed2ad332efef02ffU, 0xf7e40cdd2916210fU, 0xed210526d11f420eU,
  0xdd0f8ea1f7fce14U, 0xf8db11fbcb29d2faU, 0x6dd2036cd05ff25U, 0x7ef5e8c4dbe830cbU,
  0xf11100d509efe529U, 0xfd7db17bc0df9f6U, 0x812cd612eff8190eU, 0xf0ed0530a0d3f6c1U,
  0x45eb9dd542bade2cU, 0x4f901e3f4e117fcU, 0xc7e20abb0c3be20cU, 0xea2bdf35ea013401U,
  0xfca2f94252223cb4U, 0x344314c7f71901daU, 0x1bee25f1e828f2f7U, 0x1ff235e209f3033dU,
  0x9dddb090b4718U, 0xb37d0fcd23d37U, 0x1209601f4f3d19ceU, 0xd0dfc30a4ff2befU,
  0xe127e70bffea11cfU, 0x6b30fa7ff9d0e1f9U, 0xfcb5f4fb3edfd7eaU, 0xaa4b73618e1cee6U,
  0xf32bebc8f5ee1037U, 0xf8ffccedfc0eafdaU, 0xf81cefbdcae1fedcU, 0xc6d7e0e6fa111eddU,
  0x21c7c806f6c536beU, 0xcb0d1cfff3fccb3cU, 0xb9f10d11e73010b2U, 0xacda42be2af200cdU,
  0xdd19b4d1eff3ecf0U, 0x2ac82314dff0e9ccU, 0xd80f00e2160fecedU, 0x22dcf838080dcbc3U,
  0x8412ef47f3fea0dU, 0xf683072824201bf5U, 0xf118145a2571df2dU, 0x27bff9defde73d0dU,
  0xf017fde0bbe0f2bbU, 0xc1f6f39f49382cd7U, 0x355125effd45d16fU, 0xdb6218f160461bd6U,
  0xfccf10c50004ccb2U, 0xb3f90f01b3c7e201U, 0xdb7ce5e0ea390009U, 0x26b322dddcc40acbU,
  0xf6a4cae9d400fb02U, 0x1de311a1ce8b43faU, 0xe2d43e11da19feedU, 0x3d073e2ef7eb41acU,
  0xec10f2b9f55dd7daU, 0x3b24d8fcbf0bc85bU, 0x8c249d9a8170dceU, 0xc8ddef0aa403c149U,
  0x1207d2db2ed1f919U, 0xd511001d8e10f7cdU, 0x3ecf8104c8104fdeU, 0xe28c3dbf3dd0cfcU,
  0x7e5df6aebf40524U, 0xe7ed201f0c030cc4U, 0x5b2adee2f1fcdaf2U, 0x4707f9c902ff2ce1U,
  0x10e1f7f30da634e9U, 0xfa41fe0cfccbc41aU, 0x5e70da8cd1eb3fcU, 0x3bf0b7fbf0e17f53U,
  0xed3419f9ed11f39eU, 0xd31d3fe1eafbe4d6U, 0x3a0d1139e351e0U, 0xf023f4fd0ad14de7U,
  0xffffbb03b7c4e6fcU, 0x332a00000c7aU, 0xffffd668000079bdU, 0xffffcfd7fffff716U,
  0xffffe5b7ffffe8a8U, 0x1fb700001ea4U, 0xffffe51600000ff0U, 0x221400000a97U,
  0x21d0fffff5baU, 0x1b73000002a8U, 0xffffea36fffff312U, 0x453ffffee92U,
  0xffffffe300002aa0U, 0x44d000002c93U, 0x133f000011adU, 0x41affffe173U,
  0x3ca0000022bU, 0xfffff16e00002179U, 0x5560000006e8U, 0x700000032f7U,
  0xfffff10efffff397U, 0x5f2ffffec70U, 0x65e00001d2bU, 0xffff8d0d00000c3eU,
  0xfffff55000001ee2U, 0xffffff0d0000338eU, 0x2489ffffebc5U, 0xb0cffffda3aU,
  0xfffff8a100003425U, 0x2ec5000008c1U, 0x24c400000877U, 0x4b97e58a00000f47U,
  0x1cc1c7ad3acfe0e0U, 0xb481c85b9c5ed687U, 0x78fa843b32aeb332U, 0xf27ec2b87f5dec7fU,
  0x9249d1b9d92f65ebU, 0x2b7f35c240f9837fU, 0x8169a40f9825d87fU, 0xd6ca56eefc5609baU,
  0xb7937fdcea41c9cbU, 0xbfacf0e62be7423dU, 0x7e7d7f04fd7b0681U, 0x51a372f631c21efdU,
  0xf951aae8e891e046U, 0x7f0cae1b39e8f2deU, 0x1c09d17f8121b90bU, 0xc20481cd5d5b7f81U,
  0x124cf09c154c6f5eU, 0x7f815a81d9477f97U, 0xf57f3afd3d257feeU, 0x27314ab63bcb81c5U,
  0x39f63b408102eabeU, 0x63a24e4d43f29b9U, 0x2e17fe2157282caU, 0xc0e93b1a49de1381U,
  0xc97fed26f417e5d9U, 0xb1dde9de1a6b70aeU, 0x1aea5c2e4710e6f4U, 0x18620cec7fe2e8daU,
  0xedf77f7fed624175U, 0xf31d81e4ee717f19U, 0x1015f23819f9c608U, 0xfd11f35fba641be3U,
  0x7fbeeb1e811a543bU, 0xc5f7077d0345a915U, 0x1c4f6928f9074ad1U, 0x43edf930f2fa22e6U,
  0x5a3c12054ffe2734U, 0x400fd34501f43307U, 0xc30726fa31d9f61cU, 0xd62ced7f58ec177fU,
  0x8d1cf261daf1105U, 0xd6fcf41c24071429U, 0x57441307a72be460U, 0x74331b7fca13262eU,
  0xe7e4eb66dc106417U, 0x4def09ffe9eafe5fU, 0x8119571696affdf3U, 0x73a0f48107b681faU,
  0xbdd81e22b4fbc341U, 0xe14337cd0334ad78U, 0xd10c3afc818104f9U, 0xfb0781221c427f7fU,
  0xcb2b1b5872e77f79U, 0xf9b51e2777b96448U, 0xf4d0a409347f9777U, 0xbf2920c57ff3ee17U,
  0xce7f0116c402e2b7U, 0x2f6cf726dea4db1eU, 0x193d413e0d378ffbU, 0x747f14c1de17445fU,
  0x687f067f4cf92cb9U, 0x815e253c047f73e1U, 0xee0e4b815fd4183bU, 0x670efc9aec81cdb4U,
  0xfa7ffe0a03467fe4U, 0x9e4dd17ff73981c9U, 0x397fd72f817f1d7fU, 0xd12a4e4123dde60eU,
  0x25d16d6cd53b4cd5U, 0xfffffea700001d2dU, 0x2b9fffff841U, 0xfffffd91ffffffd0U,
  0xfffff615000007ffU, 0xfffff7d5fffffd7cU, 0xfffff84fffffff56U, 0x151ffffff706U,
  0xffffee8dfffffc5aU, 0xfffffc0cfffffe6bU, 0xf85fffffc8eU, 0xfffff9f8ffffedb7U,
  0x13d7ffffff23U, 0xffffda9cfffff811U, 0xfffff05900000483U, 0xfffffd76ffffea6dU,
  0xffffd53dfffff845U, 0xfffff4affffff3b5U, 0xfffff975fffffbbaU, 0x5c800000a2eU,
  0xffffe992ffffd3d3U, 0xfffffad7fffffeb8U, 0xffffde47fffffdddU, 0xffffcd1bfffffc88U,
  0xfffffe58fffffcb1U, 0xffffe807ffffe003U, 0xfffffbdfffffe516U, 0x539fffff970U,
  0xffffe1f4fffff85fU, 0xffffe00afffff4f7U, 0xfffff936fffffe18U, 0xfffffa30ffffe9e1U,
  0x7f11121fffffec47U, 0xc0d212e925cbdfc0U, 0xfc30fffcfb3a35fdU, 0x5ea010bea08ed12U,
  0x3c0c02001cd718e7U, 0xece4fadc1bdbcfU, 0x502238fce7f6271bU, 0xd5d4c2d2ffeb00deU,
  0x37f182f1cdce1fdU, 0x1a01ee6b18cb16c4U, 0x47571ca9c6262608U, 0x5b39d2920acae864U,
  0x25b8441d3621f8faU, 0x16c4f1f02c061bdfU, 0x2a070e163030bd48U, 0xe494dd637ae0001U,
  0xebf50e2ac8162c26U, 0xf3fcf1051a021bffU, 0xd6b10319f1fc0d1bU, 0x2efe1af91f111ddbU,
  0xfe14f121d807ee0eU, 0x37dbec4fe639161dU, 0x13fa18e5520055U, 0xb31628e25ad80481U,
  0x3fc4fe0a34e4c419U, 0x270807c90bfbef13U, 0x447f8f33f4f4bb07U, 0x11e8b49716de098bU,
  0xbbd043b5aed594bU, 0x93561007fec3f2d3U, 0xf7cc009eff25cfccU, 0xd8f27f3dfe038886U,
  0x38ccedd9d366b19bU, 0x1f5708fe03f901d4U, 0xfc0fd22553dcfdfdU, 0xd9d10497ba91cc31U,
  0x995268b7293249bdU, 0x8fb4f6f570eef1f7U, 0x3004bb590026dfb7U, 0x1ea839fec2e8cfcaU,
  0xdfea0dca3f4b3604U, 0x3217040c2e54f339U, 0x2c99b21e63150ff1U, 0xe0000644013827feU,
  0xd6fa5dd4e17d0afdU, 0x86a77f3a25f4dbeaU, 0x22ffdd6dddb0071U, 0xf50ac1097fe3d21eU,
  0x301d2505f11ac400U, 0x71a0429e1001a1dU, 0x28bf0e2ceebfe6e4U, 0x13d9cfdf1424fa3aU,
  0xce2527f3d5f00a25U, 0xf835e22037061cU, 0xef9263b1edfe4ccU, 0xfef6cf3038fae451U,
  0xa4bb92e8d7edf3f3U, 0xdc0a11c2382b6200U, 0xe519a438c92f0d07U, 0xae2e0177c42af5ceU,
  0x1595d2f60de8d10cU, 0xc51e00f7df11d912U, 0xdfd4e2ec812b1871U, 0x2ef5144ae30029d2U,
  0x1011f9f606d10d05U, 0x26251bfdd9e4faf5U, 0x12f6fddf58f8e54fU, 0x6ee01dfebf9ed24U,
  0xf2137f16c60b24eeU, 0xd63e101300120ec0U, 0x5fd102bcece604dfU, 0x4ed92433dc40f4e5U,
  0xd4f8eb98b61136d2U, 0x63eed9c0dea88119U, 0xded8e406e8fddc1eU, 0x129a091b094319a8U,
  0xb0db04de03f1a702U, 0xa2eefee80e400003U, 0x802ecf1ac81cf11U, 0xf1e344170fccb01aU,
  0xb44401e8116d2bf8U, 0xbe949de5e1d0c127U, 0xe23edc4cae715baU, 0x71e9bcdcf251f5e1U,
  0x67fa0cb39c8840U, 0x4e1a9d4af90f8feU, 0x3e001e287ff2fefbU, 0xd3f4eded1cffae1cU,
  0x2f6b82414771904U, 0xae2eed02109efe8U, 0xc50bf9ead5efedfcU, 0xf4323d160d191430U,
  0xfe190014a02f0918U, 0x8033c05b2e6cc3bU, 0x9edfecc81dffe467U, 0xe0da0e25463d11d3U,
  0x22c29739f841152cU, 0x5153f7d917287f3aU, 0x1a9bca2f090065c9U, 0xf83df3e0da1b55e0U,
  0x4938060b00573b00U, 0x2431d9f7e8e48e21U, 0xef245938121024e8U, 0xed4eeafd2c0cf437U,
  0xdab7d41a3db1faaeU, 0xe81c041d23eb2851U, 0x5aff281e9a416b1U, 0x1ef48f077b3982dU,
  0x6aceee1005bf000bU, 0x2fefbe5e20dad3cU, 0xa2644aa32390552U, 0xb9cafb47e6206db4U,
  0xf1f7c97f15106104U, 0xd684ae33e08c1aedU, 0x8b2011c203d5e7e6U, 0xaa2756e5687516U,
  0xef434df9f82cfd2U, 0x49c7011c1e167f44U, 0xf21b2550f143d01aU, 0xfbed2158fc2b0b24U,
  0xef27e5f42ae8eec0U, 0xf63905df05ddec13U, 0xf537e1072826db1cU, 0x3aa001b23142a00U,
  0xcde535cdd23e2efdU, 0x29cecfb7fc190306U, 0xda42e0f62affec18U, 0xaa30d221f022ee4U,
  0x2bc9e5cc0943feddU, 0xfce816f1081bba32U, 0x6081a6c1a6e7dfbaU, 0xfdd539be00e205e0U,
  0x2043262822dbe62bU, 0x2f21615efc1e04ddU, 0xf23908253b1b0b20U, 0x551fd6b81ac2cf2fU,
  0xf1f6211120ebd84aU, 0x1bdacaf2dd0616c9U, 0x304a001a2fc6811cU, 0x182519ea24ac0021U,
  0xe6f2f3250ec7a7efU, 0xd439b3fbf0f900d6U, 0x1d28df13213c0e7fU, 0x5124aeedb963f6feU,
  0xffcaf6f9cc44e509U, 0xf6f9ef001be1df65U, 0x1809bc12e8ecdaU, 0x41ff090c31c607cdU,
  0xc629fcd73b10efcbU, 0x44cfcbf322fb1da4U, 0x348fdb04dc2bd808U, 0x1c2e363bae2424e7U,
  0xc7d91c10f80db101U, 0xad81cd119fa6b503U, 0xfbfe001efc7e4206U, 0xe7e607f8de1be841U,
  0x1d2a3a2809e0121cU, 0x22c02c4f5f61400U, 0xebf5ecfecaf112fdU, 0xf6021bb4f20af737U,
  0x1112f70216d1c920U, 0xf4241a32ef1e0c1dU, 0xfb1654de00032ef8U, 0x12181c1f57fddU,
  0xff00fde5020000U, 0xf818e2f203050100U, 0xf8222411061e01a8U, 0x760b010102db0200U,
  0xda0003f4ff0bU, 0xbaff5621180a0221U, 0xf2000000fe060000U, 0xc263ad7bb6828fbU,
  0xf1db130e23ba3aeaU, 0xcc120c1dea4be4d8U, 0xbe5100e6e62c0604U, 0xcf00d6c71d35e81cU,
  0xc427ee6181b2afc5U, 0xd5162750936e16U, 0x662dc9d5f7e519ddU, 0x34f00be4274a4f7fU,
  0xf9214c340418ca0fU, 0x2eb9a844e01a024aU, 0x26cac7e71d17feebU, 0xfd222be1ffbffc48U,
  0x1ed9912d0be5bd1eU, 0x32eaff366d2233a6U, 0xf4f1090bfe292922U, 0x37fee012e9f7cecbU,
  0x224011bce8103a04U, 0x19e4f6ffe4ec03eaU, 0xfdeff7e24517061fU, 0xd713eafcf5fb0605U,
  0xf97f401421002d14U, 0xf0dfeaf1000be609U, 0xdcca1fc0eef1963U, 0xe0fbebcc93aed613U,
  0xec0f03b8e8db36c5U, 0x371df46610b20f09U, 0xb3adf92d0d27f77fU, 0x92dbc694cb8e8feU,
  0xd49114e4b4ebc03U, 0x436091b312900d3U, 0x117e13d3410e612U, 0xe5171707300d0912U,
  0x7dc31af2fc231c0aU, 0x38fbd3ebe37f2610U, 0x1012c4221d300426U, 0x38f71a1fff1f10f9U,
  0xf22df27044825U, 0x28f129f7f1090aedU, 0xf4250c1730f5fcf7U, 0xd5281cfdec3dfdfdU,
  0x11cafffc0c231040U, 0xc7d20f00161f47ccU, 0x4609fddd6525e8feU, 0x911fce32d817d53U,
  0x2d9e00c62bb80801U, 0xf4ca6b000afcefb1U, 0x2cdaf228e4e45423U, 0xf22bebc802dcd006U,
  0x1914e081f5c1f805U, 0x4cb05d6e7f2cb2bU, 0x12504c9f28d537e2U, 0xf7d8e5115fecea20U,
  0x4e04df320030f630U, 0xfa142e15151a11dfU, 0x6d7fa23e81710ebU, 0xfb120117f91b23U,
  0x1c19eebadbfd02e6U, 0xabf30bf308f5fdedU, 0x1df9e604f4d30cd2U, 0x24340c111d09f509U,
  0x48eff51b270b007fU, 0xf11aead931a0c334U, 0xf916ee4ff3be8133U, 0x513ba92965f4fd8cU,
  0xd7e515231775e218U, 0x99214aee6d41fb4U, 0x18f604752be3cdc8U, 0xb2774ce49edf5U,
  0xd2ed43d83d5af614U, 0xf6e41f0919c4d2f6U, 0xf7cb8dce104dbad9U, 0xf9ec8165f5dbfe07U,
  0x222ee7cab7fa2f3eU, 0xf9efc7fcf44fe3dfU, 0x42a50dbbfba3e2fU, 0xd08fd8ffdf1beaeU,
  0x47d8c00cb2f8a952U, 0x4a4dae641ff586aaU, 0xcd1913c9ebd6594bU, 0x1495e8f129199356U,
  0x4153009bfa38f34eU, 0xeb01d7b111f7a1bfU, 0xd96659fdae134655U, 0xb4f0dcaeff81e0f7U,
  0x3915d6c6d82e0702U, 0xf8e3900e31c705e0U, 0x808ecd4f333bb29U, 0xcaee16343be9fb10U,
  0xae3bd0f956205bf7U, 0xf0db3a127fecf818U, 0xfccf2fee32cd4222U, 0xad14d86c02dd001dU,
  0xdd54560d900c2f5U, 0xea3720fe15280bb7U, 0xb319fa1f1707dc30U, 0xfd1101eacc2b58ccU,
  0x9dc125dc0cb4c0cU, 0xee0106b142ede32dU, 0x53e4300481baeaU, 0xcffc35dbefe856cdU,
  0x1d2c16dbcd8326e5U, 0x1b8222a3b200a61U, 0x1ee1d3000af00e25U, 0xde3e07333605ddb7U,
  0x247e2bf92df1dc7U, 0x347f5197fddf911U, 0xafc4000a4a0ad544U, 0xfffffddf326d10cfU,
  0xfffff496fffffa32U, 0x2650000026e1U, 0xfffffb65ffffe96aU, 0xd400000f6eU,
  0x432d00002127U, 0xfffff63c0000070cU, 0xfffff39600001553U, 0x1579ffffe3eeU,
  0xfffff78cffffeef3U, 0xfffff6cc00001e2bU, 0xf7400002b15U, 0xfffffb78ffffdd26U,
  0xfffff117fffffb0cU, 0x59cfffff452U, 0xfffffa28fffffd24U, 0x15d700001773U,
  0x15efffffbd6U, 0xb29a4b700000ac7U, 0xe57a0f7f654c5458U, 0x56162a99ae7fe0bdU,
  0xf506ff81238d819fU, 0x3c0c0faf7f556de6U, 0xe97f9c7fd833e8c7U, 0xc251137f1b56fb7bU,
  0xe5fbc7d3f6c81234U, 0xef676f50e6f1e816U, 0xa03770e76d0f2ad2U, 0x7f7d217905d6453cU,
  0xd6fbd77ff064ef1cU, 0xe7d9f755ecc210e8U, 0x6b0ff909365c7f7fU, 0xc7647d42f2fb104U,
  0xa070b1789d6da50U, 0x7c9c81f4367f4415U, 0x53863da310e18cdU, 0x15292bfce93c7f7fU,
  0xbddddf45c96281e3U, 0xfa063aa61bd3253eU, 0x2202ead8002bf3efU, 0x47f4f3b1b727206U,
  0x7f14f021bf7f7802U, 0x65e232ab1f097f42U, 0xf81402e2070d0b27U, 0xf95d735749a60732U,
  0x7f60a17f7f461366U, 0xd175d8f1bc426f0fU, 0x810a144d40f92720U, 0x7f0e32d67fe5c931U,
  0x8329217018480feeU, 0xb837a130024afb0bU, 0x2df366bcf729e4f9U, 0x1e7f10f9c2067f8eU,
  0x77f42fa080c31e2U, 0xbd467f3b9620f85bU, 0x187f58c6b11ad926U, 0xc0eb25e77f087f94U,
  0x3c817fc92037ee81U, 0x950ddb46f968172dU, 0xfffffeb8fffffcbdU, 0x3a6ffffd5dcU,
  0x1c0fffff3afU, 0xfffffef9ffffe8a6U, 0xfffff4c3ffffe68eU, 0x752ffffe8edU,
  0xfffff79700000345U, 0xfffff54afffffca7U, 0xfffff6b400000453U, 0x269fffffd50U,
  0xfffffce80000141aU, 0xfffffe5f0000011dU, 0xfffff50300000452U, 0xffffed7bffffff88U,
  0xffffe047fffff49dU, 0xfffff570ffffd53eU, 0xffffefa6ffffed2aU, 0x38bffffec95U,
  0x4c8ff531ff5f165U, 0x74e5ce052b4be504U, 0xe5d400f42ee2e61bU, 0xa2fe5ffd24f6e72eU,
  0x4cfc11c51f3781f4U, 0xf9de28b5e1e2bb26U, 0x35251a38dc0fa7fcU, 0xd4f3672281b400d7U,
  0x542ff6f029f6d329U, 0x2303f77f1f3bd8c3U, 0xecefd8dd420036f8U, 0xf5fe00feeef4fff0U,
  0xb721f95715fef201U, 0x16f9e3ea05e6b2fcU, 0xf37fe8d1fd14c626U, 0xf7e3d410a207ee1bU,
  0xd4000626cf2d0075U, 0xcd6ecc6390fd50bU, 0x2118d1494732c1d7U, 0xfe07da43e6caf18cU,
  0xf8ee0055c6effb24U, 0xfde61ea201fa7ce0U, 0xc4cd76707020981U, 0x8304181e0b92d34U,
  0xd854fe1bf5c7f3d1U, 0x5afef6f856e10003U, 0xe4bc12b98e2f1028U, 0x19031dfe4ffd9490U,
  0xd7a8b3a6f737dad6U, 0xb9bb005af9e38120U, 0x6d57042827fd04feU, 0xecd9327acc9c9cc0U,
  0x3c1d0b0f035efc5eU, 0x9de041173100001U, 0xb5032037307f002aU, 0x90a1d199ef7292aU,
  0x509feaf600fe813fU, 0xa1bcdb3efe61bae6U, 0xa8e2002237aca4feU, 0x561aeb725be6e103U,
  0xe2f8d8d6b7e422f4U, 0x1000fe540c102924U, 0x42805e5077f3a35U, 0x46002d17f9090033U,
  0x42e2f7cdc61817e6U, 0xed48cecd1be41881U, 0x1202326e803defeU, 0x33e700dcfdf11ff5U,
  0xc1a55cc0b101ae2aU, 0x4625d0cf4871227aU, 0xce0b0d7f15330610U, 0x3fdce1bf36693541U,
  0x311555fffa2c0005U, 0x70f435bbddf830afU, 0xf63ff9e3f4ed3df6U, 0x272d5d27c014d4fbU,
  0x4cdc00cbfd1a3549U, 0xf3d046c8c9f6db07U, 0xe32af0eb2363fd7fU, 0x2c294a81d3e6e635U,
  0x3a25d836b4e9db03U, 0x38f2c3dbd636001cU, 0xb3a9fac3cb65e9faU, 0xffae249c3a0f95ccU,
  0xd8d0f6bb5503a5c0U, 0xb728000ce8c3c7d1U, 0x2d40d8d6c7dbd656U, 0x5c7dc258981a4d2U,
  0x1d39e618d6d5f80bU, 0x7170a185979e745U, 0xe90411ff0f100015U, 0x1277db4c7fe1f2d9U,
  0x28090c12307fc393U, 0xcf00d2b40c5ff0baU, 0xbcba001f15f2a825U, 0x13727205510735f0U,
  0xb1cfce7c8a4c7aeU, 0xf1cbdff23ae07f21U, 0x61c05f7f63e04ecU, 0xf4030d0a20cd00b9U,
  0x296de2cadf0a584eU, 0x1b20650160af1e8U, 0xfac7f5febefdf5acU, 0x9bf8000dfe0decf3U,
  0x8b2602051403fa06U, 0x3d42c8c2147fb7b9U, 0x9d3ee8b829e6d731U, 0x3d92db18b9fab5abU,
  0x61000a05fddf002cU, 0xc281b8afe7542716U, 0xee1ae01724d95513U, 0x7e313329033f0fd3U,
  0x327f00caf51a1d08U, 0x13fb05010d04e9e3U, 0x14b946e9e032c7efU, 0xccfaf5a5cacde4ecU,
  0xae0aded8e5d5f44fU, 0xc114dae536cd0006U, 0xfe7fe4d3e7dbcfeeU, 0xcf0d105e0016ed43U,
  0x39f712a7437f5d90U, 0x9300028cd1bee0fU, 0xa3791c78f6dd1afaU, 0x33ddf92f9e8bd1c9U,
  0xd7fbe92d2a1032d8U, 0xed0d0c62082a4df9U, 0x27efd94e1af100f6U, 0x1fc5027f24d2d4f5U,
  0x286dd9d806f120d8U, 0x37ea3c5436f26e19U, 0xea0c001124dfefbaU, 0xe0cd000ac2fcdd2dU,
  0x7f1128b47be9ec7fU, 0xfc025646ecc1f7e7U, 0x3ecf61bc32a5226U, 0x50024f9efdf0014U,
  0x64c2e4b52135fc0cU, 0x2851ffffef4bU, 0xe77000002eaU, 0xfffffb1700000fb7U,
  0xffff98c4000050fdU, 0xffffe66200001e69U, 0xffffdf3efffff7c7U, 0x1510ffffe789U,
  0xffffd6b600003327U, 0xffffe8f500003573U, 0x2ce100004242U, 0x11a7ffffd850U,
  0xffffee87ffffe675U, 0xfffffebbffffe940U, 0xda76baf288bb5702U, 0xf67f367fc17e81c7U,
  0xd2e918f0efddfc23U, 0x1104bd030756bf48U, 0xf85c9b339b97dd0fU, 0x1133f4e2abe8de3eU,
  0x41ba597fce0fcbfdU, 0x81bd8acfc2154a07U, 0xf81003ecdb4da012U, 0xf718a6ffdc7f2530U,
  0xf57f177fb4080370U, 0x3c6ae9c5371ffd78U, 0x26301a97fb81b06U, 0xd3a16e0aa7fd657U,
  0xdf1cf918ed7ff052U, 0xd5e93436f1131024U, 0x31d95311063dec7fU, 0xcb09f716eb552422U,
  0xe8f429f7c507f72bU, 0x7ff7673838fd033dU, 0x2fe40b2a7f0c9f7fU, 0x7fa07f7f74097bf2U,
  0x2424f3e67f06f0d6U, 0x3b1a36f07f19e11bU, 0xf24a650722f76002U, 0xc7f1e8f7d87f50abU,
  0x19095bf303ca7f1dU, 0x7fe981fb4fd47a26U, 0x1623b9234781e13dU, 0xffffbb5e00007f9aU,
  0xfffffc11ffffea6bU, 0xffffffdf00133f1eU, 0xffffef46fffff6a5U, 0xfffffb01fffffd9cU,
  0xfffff62bffffeb6dU, 0x9c5fffff4d4U, 0xfffff27e00000945U, 0xfffff639fffff197U,
  0xfffffdf8fffffd82U, 0xfffff9f5fffff60aU, 0xfffffa48fffff1a6U, 0xfffff949000001f4U,
  0x42e115fffffd74U, 0x29da1d81bb39d4f3U, 0x3700494a08028c95U, 0x6eff6f760d1cd01U,
  0xef0718fd1009ff36U, 0xf81a1ad77f16eb29U, 0xe6ed16070134e900U, 0x89f7bc9ff12ccf2U,
  0xbb360f7fb15bc008U, 0xb34af8f1f300f296U, 0x5dc40106eef9d44bU, 0x147f9d2dc42007bcU,
  0x3fc1e0009b7b51dU, 0x59e291ad9389151U, 0xaab11c8e51d7fe4U, 0x3d00e9597949b8d8U,
  0xf31d0512cf0af9f9U, 0xfaf606a3a2af00fdU, 0x2299e0f77f36e95fU, 0x3630cbed277cc100U,
  0xe7f3809fc160c25U, 0xe1799fa828c128b3U, 0x2df81725e7002154U, 0xe324feba1d010b2bU,
  0xbae0de041835ce34U, 0x13e07f000410f9cdU, 0x2ca2a1210f3cbf6U, 0xce1afd540fecf3c7U,
  0x4900367f008bc021U, 0x280e19e9da1be5f3U, 0x11ecc3af540fee6U, 0xe5570fea54a3e1ceU,
  0x690fae13cfa27f00U, 0xfa00fb1200fdfa01U, 0xfcf20f7ff3410221U, 0xf8fcf9b549001e33U,
  0x43b501e41e090b08U, 0x3d6dbe7ff3084bf7U, 0x46f03a0003ceb459U, 0xfe7feefb1431cb61U,
  0xe0c9f22a2320452bU, 0x2000bb4ef20555e6U, 0xff5e925e9fefe6dU, 0xf31be18161a700c6U,
  0xde79c0b2570d96fU, 0x30e3b1692cdd0700U, 0x5953bee2fb4cdd1fU, 0x3a3970811ac201f6U,
  0x64c8007410000d25U, 0xb740000dbf3U, 0xfffffb41ffffedaeU, 0xfffffe19fffff92cU,
  0x1140fffffc92U, 0xfffff75c000001dbU, 0x45d00000313U, 0xffffef40ffffeb9aU,
  0xfffffc1f00000366U, 0xc43cc7497b5243e1U, 0xff0235977f08997aU, 0x43d17fd1007d7fdfU,
  0xed087b7f7f637fe2U, 0x1622db2881ebf707U, 0x1a7f1877fff9eb4cU, 0xfa6aa422fff47c0aU,
  0x2a220b7fb7008d17U, 0x4972ae9e1f3300f7U, 0x1c3d2939fd1c2a1cU, 0x151f2be89b0cecf8U,
  0x487f81975efb350dU, 0xd211b20a7f7f7f03U, 0x2561e1978b230e81U, 0xc4e944c8fef13c24U,
  0xf30c6e24f6d341fdU, 0xdbf934eff2e059U, 0xfffff19efffff966U, 0xd1700000bd1U,
  0x329fffff0f6U, 0xfffffe70ffffe929U, 0x576fffffb04U, 0xa32005d005dU,
  0x311ffffefa2U, 0x11012adffffff506U, 0x40000b54ebc1afc2U, 0xd32c2d24ecf97fd7U,
  0xf55d000609c6f3bfU, 0x81d14951b6de067fU, 0x6ff74f00a1371fa5U, 0xbc81bd1708faebd5U,
  0xf459f14d00e135ebU, 0x51e0cd51080004daU, 0x7f90e901d5007fccU, 0x2511c2c312424b37U,
  0x1fdece05ef5100fbU, 0xf9b31db68c0b3348U, 0xa247ff734c27f00U, 0x5f5615d3e81ffbU,
  0xbfcf645d7ced4f4U, 0x80035f8233c597fU, 0xf6466618dc7805d0U, 0xf7110044810a0dc9U,
  0xadccfc8acf113fcU, 0xf140900813fb9ceU, 0xe3d50f69570df90eU, 0xcf7f105700062732U,
  0xef0540087f67e531U, 0xcfeff61be200ec13U, 0xb7ff2f8e20d0eb4U, 0xaf7fe7e9d7fa0045U,
  0x10230c18012f1c2fU, 0x44ac202b19a23400U, 0xebdbf0f97ff64bU, 0x262410befdf114feU,
  0x2d00081edecbf5e6U, 0xd704ef27dae57fe9U, 0xcd4900f65ae8a9a5U, 0xafb7ecea3fa4d87fU,
  0x7f161a001c21e791U, 0xad7ff6090a0602edU, 0xfe7ebff0016ebfaU, 0xc13f75fdd9e0ed7fU,
  0xf53ae2c1f400e64fU, 0xf8c9a87fb7d7dc31U, 0xff7607f711d60037U, 0xf37fc608f12e020eU,
  0xe8d0b2d0e2d7ff00U, 0x7ffa31f9bef8e2U, 0x20dbbca06e91ddaU, 0xf2002d087f26e8d9U,
  0xe0f002feef3U, 0x2e18000001ecU, 0x4b20000127bU, 0x13e1fffff264U,
  0xffffe8f5fffffc03U, 0xcef8fffff354U, 0xfffff07300000838U, 0xfffff08e000006cdU,
  0x1a7fffff794U, 0x16a6000010cdU, 0xd50fffffacfU, 0xfffffe9a0000054fU,
  0x1a9c000009f9U, 0xfc5213d87f332469U, 0x13047f0db99d1a49U, 0xf2e20814de7f7f30U,
  0x7f057f4730f12326U, 0x346d24dda1ff430dU, 0xde54280c544f0423U, 0xf0c5e3ad81d27f7fU,
  0xcf01f13b90b1b82aU, 0x3a1c1a85cc8119efU, 0xf44e354833f3c1f4U, 0x7fbcae2329f7ecebU,
  0xfb3f6967537f0100U, 0x7a7f687f01e6f219U, 0xe0812138f604d518U, 0x7f6d7258010e1b42U,
  0x22ccdd0511e67f11U, 0xf22bdd913c2e3e8U, 0xafe3d810cd22569fU, 0xf3072e1bed08e36cU,
  0xee3156e7540022f8U, 0x4e508282127201eU, 0x1cf22b63111a0ee3U, 0x7f7f0e7f642a3109U,
  0x7de7ff8c27ff8c6U, 0x84c7f197f33fb1fU, 0xf0e3ef3c1a6f940cU, 0x1fec400b070681a6U,
  0x5fedf6fc2bfd0da9U, 0xfffffae20000001bU, 0xfffff760fffffa9aU, 0xdbfffffbeaU,
  0xfffffd4f00000097U, 0xffffefc900000213U, 0x1a5487fffffd3dU, 0xffffdc930001bf03U,
  0x7bdfffffc70U, 0xfffffa46fffff37bU, 0xfffff4eafffffb6aU, 0xffffd87ffffff393U,
  0x419000003fcU, 0xfffff72c000000c5U, 0xd3412eef427fdb29U, 0x1e181e0d0101d60cU,
  0xe7c14d075ce22ad7U, 0xf120df172307f6f3U, 0x1805020000243442U, 0x7fde0219d00904fdU,
  0x71c81413f1231de7U, 0x7ed901007f18193eU, 0xcc09d3f91be7e0feU, 0xc13c4d3c5a7be25bU,
  0xfb0001599ee04ef3U, 0x104496c73cae1deU, 0xf61f230d0394c481U, 0xffff4119fda1190dU,
  0xf4fc02361eefef0eU, 0x1f7faf5f57ffbU, 0x10848134238f3U, 0x18f00a013e560000U,
  0x15df50487f040005U, 0x10fcdae6d1e2c4c6U, 0xda1d46df000d0000U, 0xcade24e47f056821U,
  0x7608530aa3d99810U, 0xfc552d05ff01ebU, 0x4d8f7fa80d64dbddU, 0x286a45632330ecfcU,
  0x5227708fe00a51cU, 0x727fc7f9eecc10f6U, 0x19eec22e3a466044U, 0xe4e3f0ff014ab9dcU,
  0xdbbb03f66c677fdeU, 0x1aca4d62357f0fc4U, 0xee200002cdaf319U, 0xab02eb527654ce14U,
  0xda49782443fdece9U, 0xe040134ad0c3253U, 0x9081e3b41eff4f4U, 0x4ed0ef5e4a1d881U,
  0xc556294f27caU, 0x26ee0a0edb7f0301U, 0xde15f720b67fc305U, 0x13d301c140f0fecU,
  0xfdf719f9ef7feaffU, 0xf6e3783e51eafe03U, 0xd7f14142207fa05U, 0xe9fdf4fe38010100U,
  0xe1156a0cdcf2c8f3U, 0x413349384702da16U, 0x1604216812ff00e4U, 0x3f417fa3fce7ccfcU,
  0xe433e5d54456447dU, 0xd7e8e1e7ff014ed4U, 0xc6cd8c0a107a7f7eU, 0x4a1ae929491e1507U,
  0xe81021030016a711U, 0x1c8108eff7242604U, 0x630327ecea1801e2U, 0x549b020016eefb7fU,
  0x9a06fc282800865bU, 0xffffe0d5003ff104U, 0xfffff0f1ffffdeb2U, 0x34500001649U,
  0x1161ffffdb91U, 0xfffffda9000032b2U, 0xfffffbb900000990U, 0x12000007acU,
  0x11c200000649U, 0xfffffd9100001388U, 0xffffd76a000010fcU, 0x81e181d4d1f93f81U,
  0xeaa201acbcb7cff2U, 0xd6af00baaad0c3b8U, 0xea95dbd6fcde7fc2U, 0x2dede4a8d204e606U,
  0xd0ffeb12030abae7U, 0xa5c5e6f8ddf0a9bfU, 0xe41822fcfb24f5ebU, 0xbe087feaf5072071U,
  0xf3ff184706ffe616U, 0xf703f57f2f09467fU, 0xdb05fa007f7f0223U, 0xf0aae1fa11fbfe18U,
  0xf5f2f9e597ecf2fdU, 0x6a2f80008ca05f0U, 0xe51102f3f2e30c09U, 0x1f48b0ff0702e9cdU,
  0xe8f6b34ae5eb9df3U, 0x7ff4efb41d1258eeU, 0x9c1705667f7f7fd3U, 0xe4057fb67f7f7f03U,
  0x2edc00fa7f7fU, 0x197fffff13bU, 0xfffffd2a0000042fU, 0x35a00088f08U,
  0x38100000eabU, 0x4e200000330U, 0x1652000006feU, 0xffffffc90000028fU,
  0x42900000109U, 0x12f00000778U, 0x0U, 0x0U,
  0x0U, 0x0U, 0x0U, 0x0U,
  0x0U, 0x0U, 0x0U, 0x0U,
  0x0U, 0x0U, 0x0U, 0x0U,
  0x0U, 0x0U, 0x0U, 0x0U,
  0x0U, 0x0U, 0x0U, 0x0U,
  0x0U, 0x0U, 0x0U, 0x0U,
  0x0U, 0x0U, 0x0U, 0x0U,
  0x0U, 0x0U, 0x0U, 0x0U,
  0x0U, 0x0U, 0x0U, 0x0U,
  0x0U, 0x0U, 0x0U, 0x0U,
  0x0U, 0x0U, 0x0U, 0x0U,
  0x0U, 0x0U, 0x0U, 0x0U,
  0x0U, 0x0U, 0x0U, 0x0U,
  0x0U, 0x0U, 0x0U, 0x0U,
  0x0U, 0x0U, 0x0U, 0x0U,
  0x0U, 0x0U, 0x0U, 0x0U,
  0x0U, 0x0U, 0x0U, 0x0U,
  0x0U, 0x0U, 0x0U, 0x2f7ff40000000000U,
  0xb004238d500a20fU, 0xa12044132f0490eU, 0x0U, 0x0U,
  0x0U, 0x0U, 0x0U, 0x0U,
  0x0U, 0x0U, 0x0U, 0x0U,
  0x0U, 0x0U, 0x0U, 0x0U,
  0x0U, 0x0U, 0x4afe790000000000U, 0x747f17d61100204bU,
  0x411a5ad4fe512c28U, 0x3add00a7093c7ff4U, 0x3a35f3440906fb41U, 0x365119087f030ffcU,
  0x1c395d6c03f22200U, 0x352d4de4e801U, 0x0U, 0x0U,
  0x0U, 0x0U, 0x0U, 0x0U,
  0xee00000000000000U, 0x6639ee00d80d317fU, 0xf65b4f075cff0004U, 0xf7f5U,
  0x0U, 0x0U, 0x0U, 0x0U,
  0x0U, 0x0U, 0x0U, 0x0U,
  0x7ff3000000000000U, 0x63a40ce00991723U, 0x17084527dd58150fU, 0x5U,
  0x0U, 0x0U, 0x0U, 0xf000000000000000U,
  0x3549d9008b191d7fU, 0x94a27ec5c151006U, 0xb8044c7ff40a15U, 0x14d0506f63e3edcU,
  0xea0afb423eU, 0x0U, 0x0U, 0x0U,
  0x0U, 0x0U, 0x0U, 0x0U,
  0x0U, 0x0U, 0x0U, 0x0U,
  0x0U, 0x0U, 0x0U, 0x0U,
  0x0U, 0x0U, 0x0U, 0x0U,
  0x0U, 0x0U, 0x0U, 0x0U,
  0x0U, 0x0U, 0x0U, 0x0U,
  0x0U, 0x0U, 0x0U, 0x0U,
  0x0U, 0x0U, 0x0U, 0x0U,
  0x0U, 0x0U, 0x0U, 0x0U,
  0x0U, 0x0U, 0x0U, 0x0U,
  0x0U, 0x0U, 0x0U, 0x0U,
  0x0U, 0x0U, 0x0U, 0x0U,
  0x7800000000000000U, 0x14d113001b4140feU, 0x5dd10f553220787fU, 0x3511U,
  0x0U, 0x0U, 0x0U, 0x0U,
  0x0U, 0x0U, 0xc608337ff3000000U, 0x3d090af9422ef000U,
  0x40bfc4636e7U, 0x0U, 0x0U, 0x0U,
  0x0U, 0x0U, 0x0U, 0x0U,
  0x0U, 0x0U, 0x0U, 0x0U,
  0x4700720000000000U, 0x717f15cf12001e46U, 0x38185dcf1e56291dU, 0x0U,
  0x0U, 0x0U, 0x0U, 0x0U,
  0x0U, 0x0U, 0x0U, 0x0U,
  0x0U, 0x0U, 0x0U, 0x0U,
  0x0U, 0x0U, 0x0U, 0x0U,
  0x0U, 0x0U, 0x0U, 0x0U,
  0x0U, 0x0U, 0x0U, 0x0U,
  0x0U, 0x0U, 0x0U, 0x0U,
  0x0U, 0x0U, 0x0U, 0x0U,
  0x0U, 0x0U, 0x0U, 0x0U,
  0x0U, 0x0U, 0x0U, 0x0U,
  0x0U, 0x0U, 0x0U, 0x0U,
  0xc8009b1f207feb00U, 0x24f05c1b1a0d343fU, 0x41b1046U, 0x0U,
  0x0U, 0x0U, 0x0U, 0x0U,
  0x0U, 0x5906750000000000U, 0x657f15d415001b54U, 0x3c1f5cd70e552827U,
  0x0U, 0x0U, 0x0U, 0x0U,
  0x0U, 0x0U, 0x0U, 0x0U,
  0x0U, 0x0U, 0x0U, 0x0U,
  0x0U, 0x0U, 0x0U, 0x0U,
  0x0U, 0x0U, 0x0U, 0x0U,
  0x0U, 0x0U, 0x0U, 0x0U,
  0x0U, 0x0U, 0x0U, 0x0U,
  0x0U, 0x0U, 0x0U, 0x0U,
  0x0U, 0x0U, 0x0U, 0x0U,
  0x0U, 0x0U, 0x0U, 0x0U,
  0x0U, 0x0U, 0x0U, 0x0U,
  0x0U, 0x0U, 0x0U, 0x0U,
  0x0U, 0x7f00000000000000U, 0x14d10f01164443f5U, 0x56d2294d1a196773U,
  0x250fU, 0x0U, 0x0U, 0x0U,
  0x0U, 0x0U, 0x0U, 0x0U,
  0x0U, 0x0U, 0x0U, 0x0U,
  0xd9009717227ff100U, 0x2fe34c130e073d34U, 0xa160748U, 0x0U,
  0x0U, 0x0U, 0x0U, 0x0U,
  0x0U, 0x0U, 0x0U, 0x0U,
  0x0U, 0x0U, 0x0U, 0x0U,
  0x0U, 0x0U, 0x0U, 0x0U,
  0x0U, 0x0U, 0x0U, 0x0U,
  0x0U, 0x0U, 0x0U, 0x0U,
  0x0U, 0x0U, 0x0U, 0x0U,
  0x0U, 0xd703287fd8000000U, 0x42f6f6015a220a00U, 0xfbedf24141f8U,
  0x0U, 0x0U, 0x0U, 0x0U,
  0x0U, 0x0U, 0x0U, 0x0U,
  0x0U, 0x0U, 0x0U, 0x0U,
  0x0U, 0x0U, 0x0U, 0x0U,
  0x0U, 0x0U, 0x0U, 0x0U,
  0x0U, 0x0U, 0x0U, 0x0U,
  0x0U, 0x0U, 0x0U, 0x0U,
  0x0U, 0x0U, 0x0U, 0x0U,
  0x0U, 0x0U, 0x0U, 0x0U,
  0x0U, 0x0U, 0x0U, 0x0U,
  0x0U, 0x0U, 0x0U, 0x0U,
  0x0U, 0x0U, 0x0U, 0x12494df97f0000U,
  0x511f1a647f17cb16U, 0x4c115aca1bU, 0x0U, 0x0U,
  0x0U, 0x0U, 0x0U, 0x0U,
  0x7fe6000000000000U, 0x56c2cf700de0a2fU, 0xf2f85f49065300feU, 0xffU,
  0x0U, 0x9387ff100000000U, 0xb07f94737e200bfU, 0xed0afe4a40eb4cU,
  0x0U, 0x0U, 0x0U, 0x0U,
  0x0U, 0x0U, 0x0U, 0x0U,
  0x0U, 0x9b0e2e7ff5000000U, 0x440e0fff3c38dc00U, 0x518ff3f35e1U,
  0x0U, 0x0U, 0x0U, 0x0U,
  0x0U, 0x0U, 0x7f00000000000000U, 0x12da0f0116403ef2U,
  0x54d5214e1916656fU, 0x250fU, 0x0U, 0x0U,
  0x0U, 0x0U, 0x0U, 0x0U,
  0x0U, 0x0U, 0x0U, 0x0U,
  0x0U, 0x0U, 0x0U, 0x0U,
  0x0U, 0x0U, 0x0U, 0x0U,
  0x119454bfc7d0000U, 0x4f291c6e7f18d410U, 0x391160d113U, 0x0U,
  0x0U, 0x0U, 0x0U, 0x0U,
  0x0U, 0x0U, 0x0U, 0x0U,
  0x0U, 0x0U, 0x0U, 0x0U,
  0x0U, 0x0U, 0x0U, 0x0U,
  0x0U, 0x0U, 0x0U, 0x0U,
  0xf9f40012f581e515U, 0x9f6e7e6f9f5f6fcU, 0xc502f7U, 0x0U,
  0x0U, 0x0U, 0x0U, 0x0U,
  0x0U, 0x0U, 0x0U, 0x0U,
  0x0U, 0x0U, 0x207424af77f0000U, 0x591f155e7311ce12U,
  0x240b58cf34U, 0x0U, 0x0U, 0x3fd500891c177fe9U,
  0x4c2ae556160b0a40U, 0xb150aU, 0x0U, 0x0U,
  0x0U, 0x0U, 0x100211424af47f00U, 0x324b17185f7512cfU,
  0x220d56d0U, 0x0U, 0x0U, 0x0U,
  0x0U, 0x0U, 0x0U, 0x0U,
  0x0U, 0x0U, 0x0U, 0x0U,
  0x0U, 0x0U, 0x0U, 0x0U,
  0x0U, 0x0U, 0x0U, 0xc2d7f0000000000U,
  0x120afb3c44e300a0U, 0x51bfc4433dd42U, 0x0U, 0x0U,
  0x0U, 0x0U, 0x0U, 0x0U,
  0x0U, 0x0U, 0x0U, 0x17f281de13000000U,
  0xe0fbfcf5ff03f900U, 0xba07f90af3f4U, 0x0U, 0x0U,
  0x0U, 0x0U, 0x0U, 0x0U,
  0x0U, 0x0U, 0x0U, 0x0U,
  0x0U, 0x0U, 0x0U, 0x0U,
  0x0U, 0x0U, 0x0U, 0x0U,
  0x0U, 0x0U, 0x0U, 0x0U,
  0x0U, 0x0U, 0x0U, 0x0U,
  0x0U, 0x0U, 0x0U, 0x0U,
  0x0U, 0x0U, 0x0U, 0x0U,
  0x0U, 0x0U, 0x0U, 0x0U,
  0x0U, 0x0U, 0x0U, 0x0U,
  0x0U, 0x0U, 0xff00000000000000U, 0x5325ea00ca09337fU,
  0xfa5345e4491109f5U, 0xf80dU, 0x0U, 0x0U,
  0x0U, 0x0U, 0xc0000000c0000000U, 0xc0000000c0000000U,
  0xc0000000c0000040U, 0xc0000040c0000040U, 0xc0000000c0000040U, 0xc0000000c0000040U,
  0xc0000000c0000000U, 0xc0000000c0000000U, 0xc0000000c0000000U, 0xc0000000c0000000U,
  0xc0000040c0000000U, 0xc0000000c0000040U, 0xc0000000c0000000U, 0xc0000000c0000000U,
  0xc0000000c0000000U, 0xffffea0dc0000040U, 0xc0000000c0000000U, 0xc0000000c0000000U,
  0xc0000040c0000000U, 0xffffd708c0000000U, 0xffffd81dffffeb36U, 0xc0000000c0000000U,
  0xffffd5c1c0000000U, 0xc0000000c0000000U, 0xc0000000c0000000U, 0xc0000000ffffeb9dU,
  0xffffeaa6c0000000U, 0xc0000000ffffe4cbU, 0xc0000040c0000000U, 0xc0000000c0000000U,
  0xc0000000c0000000U, 0xc0000000c0000000U, 0xc0000000c0000000U, 0xc0000000c0000000U,
  0xc0000000c0000000U, 0xc0000000c0000000U, 0xc0000000c0000000U, 0xc0000000c0000000U,
  0xffffd840c0000000U, 0xc0000000c0000000U, 0xffffea57c0000000U, 0xc0000000c0000000U,
  0xc0000000c0000000U, 0xffffd8cfc0000000U, 0xc0000000c0000000U, 0xc0000040c0000000U,
  0xc0000040c0000000U, 0xc0000000c0000040U, 0xc0000000c0000040U, 0xc0000000c0000040U,
  0xc0000040c0000000U, 0xc0000000c0000000U, 0xc0000000c0000000U, 0xffffea25c0000000U,
  0xc0000000c0000000U, 0xffffd7c9c0000000U, 0xc0000040c0000040U, 0xc0000040c0000000U,
  0xc0000000c0000000U, 0xc0000000c0000000U, 0xc0000000c0000000U, 0xc0000000c0000000U,
  0xc0000000c0000000U, 0xc0000000c0000000U, 0xc0000000c0000000U, 0xc0000040c0000040U,
  0xffffdd69c0000000U, 0xc0000000c0000000U, 0xc0000000c0000000U, 0xffffebdac0000040U,
  0xc0000000c0000000U, 0xc0000000c0000000U, 0xc0000000c0000000U, 0xc0000000c0000000U,
  0xc0000000c0000000U, 0xc0000040c0000000U, 0xffffe49ac0000000U, 0xc0000040c0000040U,
  0xc0000040c0000000U, 0xc0000040c0000000U, 0xc0000000c0000000U, 0xc0000000c0000000U,
  0xc0000000c0000000U, 0xc0000000c0000000U, 0xc0000000c0000000U, 0xc0000000c0000000U,
  0xc0000000c0000000U, 0xc0000000ffffdb1dU, 0xc0000000c0000040U, 0xc0000000ffffd7d8U,
  0xc0000000ffffe3dcU, 0xc0000000c0000000U, 0xffffecd3c0000000U, 0xc0000000c0000000U,
  0xffffddccc0000000U, 0xc0000000c0000000U, 0xc0000040c0000000U, 0xc0000000c0000000U,
  0xc0000000c0000000U, 0xc0000040ffffd97aU, 0xc0000000c0000000U, 0xc0000000c0000000U,
  0xc0000040c0000000U, 0xc0000000c0000040U, 0xc000000000000c71U, 0xc0000000c0000000U,
  0xc0000000c0000000U, 0xc0000000ffffddb0U, 0xc0000040ffffeb32U, 0xffffde99c0000000U,
  0xc0000000c0000040U, 0xc0000000c0000000U, 0xc0000040c0000000U, 0xc0000040c0000000U,
  0xc0000000ffffeb26U, 0xc0000000c0000000U, 0xa00c0000000U, 0xc0000000c0000000U,
  0xc0000000c0000040U, 0xc0000000c0000000U, 0xc0000000c0000040U, 0xc0000000c0000000U,
  0xc0000040c0000000U, 0xc0000000c0000000U, 0xc0000000c0000000U, 0xc0000040c0000000U,
  0xffffe407c0000000U, 0xc0000000c0000000U, 0xf500fb000309f5f9U, 0xa0406ee050bf7f8U,
  0x7000c0f140e0c04U, 0x230908fff8f7f103U, 0xdf07f6080a0a0506U, 0xf030efb0a00e81bU,
  0xf01829fbf72df9fbU, 0xf803f202f6fdf50bU, 0xf7ff110b090100fdU, 0x8fde1fe0305f4f6U,
  0xe602eefb0bf8210fU, 0xf3eeef0f03070600U, 0x40b03fc09f306faU, 0xdefaf3fe2d06ff0eU,
  0xf3ff10f2fb0d05f3U, 0xf6faf5fd0cf90bf9U, 0x4fcd7f9fe0cfef6U, 0x70000f62cf8f303U,
  0x7fc07ef0cfd09fcU, 0xeef2070701051403U, 0xf10301fdfe0111f3U, 0xfda040ff0fb0001U,
  0xfef50516050afd08U, 0x11fdd609f1f822f7U, 0xf5de01f8ff04f502U, 0xfbf7f9f90e0a01f2U,
  0xccf3f509fb06baU, 0xfdf5f90ad8fc0f24U, 0xfd020f1d08f7070cU, 0x7f3f8010f068101U,
  0xf4f202fbfef8f4feU, 0xfdf713fcff0a03f1U, 0xf500fb000409f5f9U, 0x90307ee050bf7f8U,
  0x7000c0f140e0c04U, 0xe70908fff8f7f103U, 0x1a08f6080a0a0506U, 0xf03f8fb0a0116e3U,
  0xf0edd7fbf7dff9fbU, 0xf903f202f6fdf50bU, 0xf600110b090100fdU, 0x8fd23fe0305f4f6U,
  0x2202eefb0bf8e20fU, 0xf2eeef1003070600U, 0x40b03fc09f406fbU, 0x22faf3fed106ff0eU,
  0xf3ff10f2fc0d05f3U, 0xf6faf5fd0cf90af9U, 0x4fc2bf9fe0cfef6U, 0x70000f6d4f9f303U,
  0x7fc07ef0cfd09fcU, 0xeef207070105f203U, 0xf10303fdfe0111f3U, 0xf20040ff0fb0000U,
  0xfef404f205f3fd08U, 0x11fd2309f1f8dbf7U, 0xf52401f8ff04f502U, 0xfbf7f9fc0e0a01f2U,
  0x2df3f509fb0652U, 0xfdf5f90825fc0fe2U, 0xfd020fe508f7060cU, 0x7f3fa010f067201U,
  0xf4f202fbfef8f4feU, 0xfdf7eefcff0a03f1U, 0xfffffdc10000023fU,
};


ai_handle g_network_weights_table[1 + 2] = {
  AI_HANDLE_PTR(AI_MAGIC_MARKER),
  AI_HANDLE_PTR(s_network_weights_array_u64),
  AI_HANDLE_PTR(AI_MAGIC_MARKER),
};

